<pad>	0
<unk>	0
</s>	0
.	-3.12811
▁wa	-3.69853
▁no	-3.71844
,	-3.89279
▁ni	-3.95548
'	-3.99403
▁to	-4.01157
▁wo	-4.0859
▁the	-4.24189
▁I	-4.28427
s	-4.32162
▁you	-4.41151
▁ga	-4.44508
▁a	-4.68193
?	-4.71626
▁de	-4.86969
▁da	-4.95109
▁ka	-5.05282
▁of	-5.05622
t	-5.1512
▁is	-5.20929
▁mo	-5.23487
▁	-5.27622
▁and	-5.31543
▁that	-5.31843
▁in	-5.32218
▁it	-5.33045
▁-	-5.48362
▁na	-5.48367
▁koto	-5.62269
!	-5.67811
▁yo	-5.70057
▁me	-5.71609
▁You	-5.72815
▁for	-5.76449
▁desu	-5.81145
re	-5.85378
▁on	-5.87191
▁have	-5.91909
▁this	-5.92083
▁shite	-5.9398
m	-5.96734
▁be	-5.97701
▁iru	-6.00742
▁suru	-6.01737
▁we	-6.02526
▁your	-6.05017
▁He	-6.07726
▁was	-6.08446
▁do	-6.092
▁are	-6.09917
...	-6.12627
▁with	-6.12728
▁not	-6.13321
▁The	-6.1463
▁nai	-6.16012
▁my	-6.21833
▁Kare	-6.23185
▁can	-6.24928
▁It	-6.25427
▁he	-6.25467
▁aru	-6.25674
▁Watakushi	-6.27784
▁We	-6.28482
▁know	-6.33788
▁shita	-6.34323
n	-6.34483
▁nan	-6.34725
▁what	-6.35943
▁ne	-6.4017
▁And	-6.43332
▁kara	-6.44631
▁What	-6.48915
▁mono	-6.52432
▁anata	-6.53107
▁at	-6.53107
ll	-6.54532
▁don	-6.54889
▁him	-6.55223
▁out	-6.55728
▁go	-6.56284
-	-6.56665
▁will	-6.57345
▁watakushi	-6.57439
▁all	-6.57445
▁like	-6.58378
▁they	-6.61228
▁about	-6.61824
▁here	-6.63114
▁up	-6.64201
▁just	-6.66015
▁so	-6.66377
▁kare	-6.67236
▁his	-6.70229
▁from	-6.71642
d	-6.72245
▁get	-6.72411
▁No	-6.72832
▁her	-6.735
▁one	-6.7439
▁there	-6.77338
▁as	-6.78659
▁sono	-6.8191
▁So	-6.81978
▁but	-6.83756
▁right	-6.86143
ve	-6.87133
▁Sore	-6.88553
▁if	-6.88663
▁Nan	-6.88711
▁an	-6.90063
▁them	-6.90399
▁She	-6.92114
▁sore	-6.92628
▁That	-6.92961
▁Kanojo	-6.94831
▁made	-6.96466
▁want	-6.96916
▁hito	-6.97931
ru	-6.99448
▁e	-6.99851
▁Anata	-7.00765
i	-7.02626
▁got	-7.02636
ing	-7.0295
▁Kono	-7.03446
▁iu	-7.0347
▁think	-7.04502
▁A	-7.04907
▁ii	-7.05432
▁time	-7.05437
▁tame	-7.05794
▁going	-7.06842
▁has	-7.07262
▁This	-7.08033
▁who	-7.08825
▁by	-7.09168
▁or	-7.09712
▁ja	-7.10696
▁Sono	-7.10836
▁kono	-7.11116
▁"	-7.12375
▁see	-7.1376
▁us	-7.1386
▁dou	-7.13872
▁were	-7.15379
▁she	-7.16277
▁had	-7.16514
▁now	-7.16729
▁But	-7.17748
▁toki	-7.17883
▁ki	-7.18499
▁ita	-7.19043
▁They	-7.19954
ta	-7.20251
▁sou	-7.21208
▁when	-7.21623
▁shi	-7.21791
▁been	-7.22933
▁would	-7.23912
▁good	-7.24331
ed	-7.24744
▁back	-7.24791
▁tte	-7.25026
▁man	-7.27494
▁karera	-7.27971
▁need	-7.29348
▁did	-7.30675
▁our	-7.30824
te	-7.31732
▁Kimi	-7.32676
▁dake	-7.33127
e	-7.34957
▁datta	-7.35682
shi	-7.37303
▁some	-7.37859
▁Kore	-7.37957
▁more	-7.38821
▁gonna	-7.40193
▁take	-7.42181
ra	-7.4219
▁come	-7.42264
u	-7.42934
▁Oh	-7.44073
▁imasu	-7.44127
▁people	-7.44448
▁There	-7.44951
▁way	-7.45081
a	-7.45311
▁their	-7.47066
to	-7.47143
▁Well	-7.47581
▁make	-7.48143
▁how	-7.48257
▁down	-7.48771
▁say	-7.48788
▁If	-7.49482
▁How	-7.49614
▁Yeah	-7.49944
▁Sou	-7.5025
:	-7.50418
▁kudasai	-7.51305
▁De	-7.51333
▁very	-7.51683
▁shimasu	-7.52208
▁hi	-7.5259
▁zo	-7.5281
▁could	-7.53018
▁ya	-7.53773
▁kore	-7.55114
▁itta	-7.55845
▁My	-7.56334
▁Do	-7.57404
▁koko	-7.57863
▁then	-7.58108
▁naru	-7.59408
▁over	-7.59418
▁kanojo	-7.59679
teki	-7.60308
▁(	-7.61451
▁said	-7.61484
▁should	-7.6187
▁Dou	-7.62889
▁dare	-7.62965
▁didn	-7.63035
▁Ore	-7.63684
▁kimi	-7.64068
▁something	-7.64417
▁hitsuyou	-7.6474
▁kita	-7.6621
▁than	-7.67218
▁kure	-7.68854
▁nasai	-7.69763
ga	-7.70142
▁yori	-7.70398
▁mae	-7.70736
▁any	-7.71299
▁only	-7.7131
▁too	-7.71347
▁sa	-7.71723
ka	-7.72175
▁into	-7.72354
▁tell	-7.72877
▁really	-7.73099
▁tsuite	-7.73818
▁off	-7.73885
▁gata	-7.74039
▁two	-7.74651
▁those	-7.77083
▁little	-7.77668
▁te	-7.78259
▁much	-7.7839
▁naka	-7.78392
▁All	-7.78509
▁look	-7.7897
▁mata	-7.79274
▁let	-7.79441
▁work	-7.7954
▁Tom	-7.7957
▁never	-7.79626
▁Karera	-7.7968
▁Don	-7.80047
▁hou	-7.80498
)	-7.81202
▁other	-7.8187
▁dekiru	-7.81887
▁where	-7.81976
▁Hey	-7.82338
▁iku	-7.82498
▁Koko	-7.82501
▁Let	-7.82652
▁Tomu	-7.83695
in	-7.84904
▁jibun	-7.85029
▁arra	-7.86753
▁before	-7.87174
▁help	-7.87177
▁itte	-7.8774
▁am	-7.87906
ro	-7.88272
ku	-7.8857
▁atta	-7.8874
▁day	-7.8877
▁subete	-7.88845
▁ore	-7.89675
▁i	-7.90303
▁Okay	-7.90351
▁find	-7.90671
▁these	-7.90712
▁nara	-7.91518
▁mou	-7.92585
sha	-7.92606
▁thing	-7.92639
▁which	-7.92884
▁Dare	-7.93961
ly	-7.94679
▁Are	-7.95384
▁Watakushitachi	-7.95572
▁ko	-7.95731
▁because	-7.95799
nai	-7.95923
▁God	-7.95927
ri	-7.95982
de	-7.96062
▁Mou	-7.96189
▁Why	-7.96718
▁hanashi	-7.97116
o	-7.97268
▁jikan	-7.97727
▁doko	-7.97861
▁first	-7.98275
▁Come	-7.98309
▁yoi	-7.98448
y	-7.99073
▁give	-8.00197
er	-8.00209
▁In	-8.00392
▁Omae	-8.00581
▁ie	-8.00718
▁mite	-8.00944
san	-8.0108
▁last	-8.01362
▁well	-8.02089
▁ichi	-8.0298
▁hontou	-8.0301
▁kuru	-8.03031
▁arimasu	-8.03061
▁mean	-8.04115
▁Now	-8.04498
▁doing	-8.0476
;	-8.04875
▁inai	-8.05406
▁life	-8.05563
▁home	-8.06505
▁To	-8.06896
▁ima	-8.07135
▁tokoro	-8.07681
▁Where	-8.08894
▁Boku	-8.0892
masu	-8.09724
▁shigoto	-8.09783
▁Allah	-8.09882
▁after	-8.10223
▁long	-8.10274
▁still	-8.10803
▁even	-8.1083
▁yoku	-8.10877
you	-8.11166
▁why	-8.11478
su	-8.11512
▁anything	-8.11952
▁shiteru	-8.12465
▁away	-8.12487
▁call	-8.12702
▁must	-8.12994
▁suki	-8.13257
▁omou	-8.13315
▁again	-8.1378
▁better	-8.13904
▁motte	-8.14105
▁okay	-8.14382
."	-8.14618
▁naranai	-8.14671
▁name	-8.14886
▁new	-8.14899
▁things	-8.14936
▁Mr	-8.15056
▁Ima	-8.15065
▁Please	-8.15263
▁talk	-8.15439
▁shiyou	-8.16377
▁Who	-8.1701
▁shinai	-8.17701
▁sure	-8.18353
▁ware	-8.18565
▁put	-8.19167
▁lot	-8.19221
ki	-8.19937
▁When	-8.20023
▁Go	-8.20867
▁may	-8.20936
▁night	-8.2134
▁naku	-8.21371
sa	-8.21496
▁Just	-8.21698
ba	-8.21839
▁natta	-8.22619
▁love	-8.22629
▁yatte	-8.2277
▁years	-8.2333
▁Yes	-8.23387
▁itsu	-8.23511
▁Soshite	-8.23577
▁boku	-8.24389
I	-8.24513
▁use	-8.24577
▁mi	-8.24867
kara	-8.26136
▁kind	-8.26402
▁Ii	-8.26877
▁mondai	-8.27147
▁watakushitachi	-8.27248
▁thought	-8.27479
▁sorry	-8.27579
▁told	-8.28064
▁believe	-8.28239
▁money	-8.28263
▁Not	-8.28428
▁otoko	-8.29053
▁always	-8.29098
▁ato	-8.29281
▁kite	-8.29341
▁O	-8.29347
▁sareta	-8.29485
▁His	-8.2968
▁dekinai	-8.30083
tachi	-8.30166
▁omae	-8.30281
▁does	-8.30877
--	-8.31079
▁through	-8.31124
na	-8.31131
▁many	-8.31282
r	-8.31533
▁Can	-8.31571
▁Your	-8.31624
me	-8.31682
sei	-8.31836
▁ta	-8.32089
▁Get	-8.32434
▁Ano	-8.32888
▁ten	-8.32939
▁car	-8.3325
▁onaji	-8.33722
▁around	-8.33924
▁Ware	-8.33924
chuu	-8.34095
▁doesn	-8.3415
▁keep	-8.3473
▁natte	-8.3484
do	-8.34863
▁might	-8.35253
▁place	-8.35474
▁came	-8.35491
▁left	-8.35645
▁Look	-8.35947
▁please	-8.36841
▁every	-8.37186
▁house	-8.37348
▁nothing	-8.38158
▁ever	-8.385
▁went	-8.38789
▁old	-8.39006
zu	-8.39896
▁father	-8.40331
▁totemo	-8.40656
▁three	-8.40962
chi	-8.41143
▁sugu	-8.41298
da	-8.4143
▁mita	-8.41692
▁world	-8.42067
▁found	-8.42116
▁done	-8.43387
▁arimasen	-8.43433
▁Iya	-8.43515
▁Aa	-8.43632
▁kai	-8.43995
▁own	-8.46048
▁hon	-8.4627
▁dakara	-8.46276
▁mitai	-8.46354
▁used	-8.46568
▁being	-8.46637
▁soko	-8.46841
▁next	-8.47369
▁same	-8.47483
▁E	-8.47538
tai	-8.47686
▁shitte	-8.47801
▁issho	-8.47907
▁great	-8.48713
▁denwa	-8.48784
▁soshite	-8.49411
▁mada	-8.49461
▁toori	-8.49501
ko	-8.49829
▁nakatta	-8.5017
▁yaru	-8.50353
▁Naze	-8.50778
▁another	-8.51448
▁understand	-8.51481
▁leave	-8.51615
mu	-8.51933
▁Did	-8.52114
▁Lord	-8.52861
▁everything	-8.53003
▁deta	-8.53126
▁won	-8.53158
▁ji	-8.53162
▁o	-8.53462
▁wake	-8.54242
▁Ki	-8.55456
▁Hi	-8.55822
▁guy	-8.56076
▁bad	-8.56105
▁arou	-8.56126
▁Then	-8.56256
▁hear	-8.56367
▁ari	-8.56811
▁today	-8.56982
▁saw	-8.57077
▁baai	-8.57211
▁looking	-8.5722
▁hazu	-8.57628
jou	-8.57744
en	-8.57893
▁feel	-8.57922
▁kill	-8.57992
ma	-8.58682
▁room	-8.59711
go	-8.59838
▁son	-8.60243
▁sukoshi	-8.60403
▁yatsu	-8.60413
▁best	-8.60514
▁tsumori	-8.60678
▁most	-8.60695
▁nen	-8.60703
▁course	-8.60887
▁basho	-8.60959
ji	-8.6113
▁dead	-8.61541
▁wrong	-8.61575
▁ue	-8.61909
▁Hito	-8.62135
▁coming	-8.62176
▁daga	-8.62304
▁took	-8.62338
▁nushi	-8.62716
▁men	-8.62828
▁aida	-8.62965
▁happened	-8.63104
▁called	-8.6315
▁stop	-8.63334
▁kuruma	-8.63489
▁totte	-8.63501
▁sarete	-8.63696
▁ask	-8.63711
▁wanted	-8.63724
▁shiro	-8.63925
▁enough	-8.64057
▁sei	-8.64133
▁nante	-8.64831
▁hoshii	-8.64867
▁Hontou	-8.64902
▁hodo	-8.65259
mashita	-8.65304
▁For	-8.656
▁mother	-8.65727
▁Good	-8.66186
nin	-8.66562
▁Mata	-8.66645
"	-8.66702
▁someone	-8.66783
▁school	-8.66823
▁set	-8.67012
▁[	-8.67136
▁isn	-8.67313
▁girl	-8.67372
▁hard	-8.67412
▁chi	-8.67665
▁ma	-8.67728
▁shitai	-8.67849
▁tsu	-8.68038
▁Moshi	-8.68692
▁talking	-8.69993
▁kou	-8.70271
▁friend	-8.71626
man	-8.71697
ya	-8.71723
▁ooku	-8.72045
▁Doko	-8.72048
▁Kyou	-8.72108
▁without	-8.7229
▁try	-8.72351
▁sonna	-8.72453
▁also	-8.72592
▁job	-8.7281
▁stay	-8.72916
▁live	-8.72922
al	-8.72971
▁guys	-8.72988
▁shimashita	-8.73065
▁shall	-8.73106
▁different	-8.73646
▁toshi	-8.74369
▁Thank	-8.74372
▁idea	-8.7463
▁trying	-8.7469
▁problem	-8.74733
▁mama	-8.74805
▁Sonna	-8.74874
▁houhou	-8.7488
▁each	-8.74974
▁remember	-8.75085
▁yourself	-8.75243
l	-8.75447
▁data	-8.75603
▁such	-8.75635
▁mind	-8.75701
▁while	-8.75719
▁As	-8.75833
▁seen	-8.75984
▁big	-8.76044
▁already	-8.76167
▁namae	-8.7628
▁end	-8.76409
]	-8.76679
▁number	-8.76765
bu	-8.76818
▁Dakara	-8.76854
▁getting	-8.76967
▁boy	-8.77181
▁dekimasu	-8.77232
▁Daga	-8.77246
▁start	-8.77405
▁else	-8.77405
▁show	-8.77456
▁family	-8.77622
▁watashi	-8.77634
▁killed	-8.77655
▁daro	-8.77814
▁Me	-8.77839
gi	-8.77948
▁ano	-8.78156
▁ite	-8.78644
▁imi	-8.78767
▁book	-8.78832
▁su	-8.78929
▁heard	-8.78977
▁case	-8.79014
▁kansuu	-8.79433
▁care	-8.79613
▁hell	-8.80114
se	-8.80138
bi	-8.80198
▁un	-8.80414
▁few	-8.80539
S	-8.81096
on	-8.8116
tsu	-8.81183
▁morning	-8.81329
▁wakaru	-8.81535
▁tada	-8.81802
▁Ha	-8.82096
▁kureru	-8.82109
▁darou	-8.82235
▁yoru	-8.8253
mi	-8.82707
▁run	-8.82897
▁hitori	-8.82947
th	-8.83029
▁together	-8.8321
es	-8.83302
▁doru	-8.83599
▁year	-8.83712
▁yet	-8.83917
▁miru	-8.83943
▁ago	-8.84096
▁kodomo	-8.84113
▁hitotsu	-8.84234
▁desuga	-8.84259
▁One	-8.84361
▁days	-8.84391
▁bun	-8.84417
▁kureta	-8.84503
▁kurai	-8.84525
▁ijou	-8.85214
c	-8.8522
▁S	-8.85301
▁real	-8.85481
▁matter	-8.85534
▁ningen	-8.85586
▁bit	-8.85602
▁oite	-8.85929
▁Ma	-8.86281
▁brother	-8.86856
▁Because	-8.86932
kan	-8.87269
tte	-8.87302
▁Maybe	-8.87349
▁Hai	-8.8759
▁soon	-8.87776
▁Wakatta	-8.87999
▁shika	-8.88434
fu	-8.88599
▁hoka	-8.89003
▁wasn	-8.89019
▁head	-8.89142
▁Have	-8.89272
▁hand	-8.89347
▁Oi	-8.89368
wa	-8.8953
▁tari	-8.89553
▁lost	-8.8958
▁sekai	-8.89716
▁Wa	-8.89795
▁deshou	-8.89835
▁until	-8.89887
▁actually	-8.8992
▁far	-8.90172
▁kami	-8.90314
▁sareru	-8.90341
▁fine	-8.90342
▁Soko	-8.9049
▁kiite	-8.90602
▁fucking	-8.90633
▁sir	-8.90774
▁sureba	-8.90907
▁shitteru	-8.91024
▁true	-8.91534
▁Chotto	-8.9159
▁yotte	-8.91726
▁soto	-8.91807
▁omotte	-8.91976
▁Our	-8.9205
▁once	-8.92397
g	-8.92579
▁turn	-8.92769
▁business	-8.92782
▁wait	-8.9287
▁part	-8.92958
▁kankei	-8.93253
▁warui	-8.93532
yo	-8.93602
▁knew	-8.9383
▁maybe	-8.93834
▁Uh	-8.94013
▁uh	-8.94326
▁dame	-8.94512
▁read	-8.94563
▁meet	-8.94663
▁Here	-8.94796
▁speak	-8.94841
▁tomorrow	-8.9489
darou	-8.94927
▁heya	-8.94988
▁michi	-8.95416
▁deshita	-8.95505
▁gave	-8.95698
▁against	-8.9579
▁1	-8.95906
▁person	-8.95995
▁play	-8.96064
▁uchi	-8.96123
▁jouhou	-8.9623
▁Shi	-8.96248
▁machi	-8.96275
▁atarashii	-8.96411
▁both	-8.96614
▁Shikashi	-8.96713
sho	-8.96716
▁daijoubu	-8.96812
▁door	-8.96942
sen	-8.97131
▁wakaranai	-8.97132
▁naze	-8.97167
▁Jibun	-8.97185
▁gun	-8.97215
▁second	-8.97251
▁between	-8.97344
▁working	-8.97428
▁ze	-8.97781
▁fun	-8.97884
▁nice	-8.97928
▁kyou	-8.98044
▁ha	-8.98072
▁water	-8.9809
▁Itsu	-8.98236
tan	-8.98333
▁moshi	-8.98707
▁gone	-8.99148
▁function	-8.99181
kun	-8.99326
▁motto	-8.99399
▁open	-8.99673
▁rikai	-8.99758
▁under	-8.9981
tta	-8.99827
▁able	-8.99913
▁chotto	-8.99921
tashitachi	-8.99929
▁move	-9.00135
▁dakedo	-9.00232
▁takusan	-9.00397
an	-9.00402
▁chigau	-9.0055
1	-9.00602
▁koso	-9.00679
▁dono	-9.00942
▁pretty	-9.00978
▁friends	-9.01068
▁shitara	-9.01076
▁Ka	-9.01223
▁means	-9.01488
▁die	-9.01676
▁Right	-9.01783
▁Nippon	-9.01821
▁Mada	-9.02222
▁hayaku	-9.02238
▁kokoro	-9.02289
▁point	-9.02655
▁question	-9.02871
▁Ni	-9.02934
▁week	-9.03047
▁whole	-9.03091
ni	-9.03248
▁dete	-9.03248
nakatta	-9.03322
▁onna	-9.03337
kedo	-9.03525
▁ken	-9.03686
▁narimasu	-9.0385
▁Or	-9.03918
▁late	-9.03969
▁plan	-9.0398
▁saying	-9.0419
▁children	-9.04224
▁shit	-9.0427
▁bring	-9.04274
▁change	-9.04595
▁English	-9.0495
▁atte	-9.04978
▁important	-9.05008
▁An	-9.05232
ke	-9.05356
▁phone	-9.05475
ha	-9.061
▁Daijoubu	-9.06115
▁alone	-9.06622
▁wife	-9.06638
▁couldn	-9.06953
▁truth	-9.07139
▁donna	-9.07162
sou	-9.07186
▁company	-9.07241
▁keikaku	-9.07391
▁face	-9.07636
▁kata	-9.07713
▁anyone	-9.08242
▁shimatta	-9.08252
▁cannot	-9.08254
▁baby	-9.08307
▁eat	-9.08356
ne	-9.08432
▁wouldn	-9.08586
▁Mary	-9.08929
▁rei	-9.08932
▁oshiete	-9.08935
▁Take	-9.08962
▁John	-9.09002
▁Hoka	-9.0904
shou	-9.09137
▁wanna	-9.10107
▁juuyou	-9.10158
▁riyuu	-9.10208
▁asked	-9.10401
▁word	-9.10431
▁ban	-9.10617
▁sent	-9.10634
▁Yoshi	-9.1077
▁shirenai	-9.10955
▁kokyaku	-9.11038
tou	-9.11118
▁since	-9.11164
▁Be	-9.11323
deshou	-9.11587
▁kangae	-9.11778
▁nashi	-9.11834
p	-9.12035
▁hope	-9.12606
▁ready	-9.12727
▁wakatta	-9.12739
▁death	-9.12836
▁minna	-9.12955
▁myself	-9.12962
A	-9.12997
▁shiranai	-9.13241
▁high	-9.13389
▁Kou	-9.1344
▁ikenai	-9.1345
nara	-9.13556
▁tsugi	-9.13776
▁mina	-9.14161
▁Wait	-9.14245
▁kotoba	-9.1435
▁Sa	-9.14854
▁Mi	-9.15002
▁fairu	-9.15207
▁tsurete	-9.15623
▁yatta	-9.15693
▁five	-9.15971
▁juu	-9.16041
▁Te	-9.16072
▁Ee	-9.16155
▁mu	-9.16197
▁woman	-9.16268
▁saisho	-9.16423
no	-9.16733
▁having	-9.17097
▁arigatou	-9.17421
▁korera	-9.17608
▁konna	-9.17668
▁saigo	-9.17718
▁looks	-9.17749
▁mottomo	-9.17876
▁line	-9.17889
▁Saa	-9.18265
▁minutes	-9.18385
or	-9.18435
bo	-9.18436
ken	-9.18744
▁yakusoku	-9.1886
▁ri	-9.18886
▁order	-9.19
x	-9.1933
▁kangaete	-9.1933
▁iya	-9.19362
▁eyes	-9.19519
chou	-9.19568
▁oku	-9.19779
▁fire	-9.19827
▁thinking	-9.19887
D	-9.20014
▁haven	-9.20054
▁hai	-9.20059
▁Sorry	-9.20443
▁answer	-9.2048
▁On	-9.20495
▁rain	-9.20527
▁Ko	-9.20605
▁gotta	-9.20705
▁betsu	-9.20726
▁setsumei	-9.20841
▁kazoku	-9.20923
▁jishin	-9.20931
▁Jon	-9.20938
▁yeah	-9.20968
za	-9.21268
▁says	-9.21378
▁omoimasu	-9.21518
▁example	-9.21536
▁nado	-9.21735
▁close	-9.219
ge	-9.22014
▁party	-9.22061
▁times	-9.22332
ten	-9.22335
▁re	-9.22393
▁makes	-9.22465
▁matte	-9.2253
gai	-9.22562
le	-9.2285
▁moto	-9.22961
▁clear	-9.22972
▁kao	-9.23005
▁kekkon	-9.23031
▁pay	-9.23031
▁koro	-9.23274
▁happy	-9.23322
▁zutto	-9.23551
▁Meari	-9.23635
▁guess	-9.23758
▁kiita	-9.23939
▁kaisha	-9.23994
▁kachi	-9.2418
▁atama	-9.244
▁hanasu	-9.24516
▁yuu	-9.24609
▁taking	-9.2463
▁Da	-9.247
▁value	-9.24856
▁side	-9.2486
kin	-9.25007
▁chikara	-9.25171
▁Subete	-9.2528
▁C	-9.25355
▁Tsumari	-9.25553
▁shinda	-9.25605
▁uso	-9.25786
▁happen	-9.25823
▁fu	-9.2592
▁Tell	-9.26023
▁Anta	-9.26122
▁hands	-9.26136
▁Un	-9.26155
▁R	-9.26277
▁saseru	-9.26292
ers	-9.26366
▁Na	-9.26766
▁Will	-9.26771
▁okane	-9.2684
▁koi	-9.26867
O	-9.26907
masen	-9.2697
▁kekka	-9.2698
▁yokatta	-9.27038
be	-9.27106
▁safe	-9.27187
▁story	-9.27319
▁taishite	-9.27749
▁cash	-9.27808
▁tai	-9.27832
▁earth	-9.27855
▁kaku	-9.2795
▁suu	-9.2797
▁often	-9.28003
▁quite	-9.28045
▁inside	-9.28154
▁hijou	-9.28272
▁tsukatte	-9.28278
▁comes	-9.28459
▁shitsumon	-9.2848
▁fuck	-9.28481
▁Of	-9.28522
▁saki	-9.28709
▁dog	-9.28783
▁musuko	-9.28829
▁dai	-9.28903
▁behind	-9.28932
▁tried	-9.28983
▁knows	-9.29013
▁child	-9.29301
▁making	-9.29359
▁At	-9.29434
▁walk	-9.29696
▁tori	-9.29734
▁These	-9.29845
▁se	-9.29904
▁T	-9.30098
▁yaku	-9.30167
▁watch	-9.30177
▁ru	-9.30209
▁city	-9.30232
▁mattaku	-9.30307
ja	-9.3035
▁hours	-9.30536
▁New	-9.30585
▁buy	-9.30645
reba	-9.30654
▁police	-9.30654
▁tsukau	-9.30874
▁kane	-9.3094
kou	-9.30973
▁beautiful	-9.31133
▁easy	-9.31232
▁Minna	-9.31278
▁ba	-9.31292
▁omotta	-9.31431
▁U	-9.31443
▁afraid	-9.31551
?"	-9.31574
kku	-9.31627
▁ran	-9.31772
▁hanashite	-9.31979
▁Konna	-9.32006
▁Give	-9.32127
▁josei	-9.32142
▁hurt	-9.32158
▁gakkou	-9.32208
▁ichiban	-9.32224
▁given	-9.32384
▁young	-9.32424
kai	-9.32512
▁kanarazu	-9.32534
▁wants	-9.32541
ryoku	-9.32589
▁Ta	-9.32719
▁zenbu	-9.32786
▁news	-9.32835
▁Tsugi	-9.32882
▁exactly	-9.33106
▁chichi	-9.33156
▁rest	-9.33219
▁sai	-9.33252
▁hit	-9.33312
▁least	-9.33384
so	-9.33668
▁everyone	-9.33676
▁reason	-9.33724
▁town	-9.33772
▁Tsu	-9.33825
▁tonight	-9.33998
▁kakunin	-9.34213
▁Yatsu	-9.34222
▁tsuki	-9.34294
ryou	-9.34319
▁sensei	-9.34483
▁See	-9.34548
▁listen	-9.34657
▁sentaku	-9.34672
mo	-9.34751
▁goes	-9.34824
▁K	-9.34844
▁train	-9.35013
▁kiken	-9.35142
▁four	-9.35206
daga	-9.35245
▁deal	-9.35543
▁started	-9.35669
▁heart	-9.35715
▁Like	-9.35745
▁game	-9.35867
▁probably	-9.35978
▁desho	-9.36095
▁its	-9.36306
▁wish	-9.36332
▁tomo	-9.36502
▁free	-9.36536
▁using	-9.36647
▁Yoku	-9.36706
▁Dr	-9.36772
▁Iie	-9.36773
gu	-9.3696
▁later	-9.36975
▁cut	-9.37164
▁brought	-9.37203
▁junbi	-9.37356
▁light	-9.37361
▁died	-9.37545
ou	-9.37548
▁mieru	-9.37553
▁file	-9.37629
▁ookina	-9.37649
▁yesterday	-9.37697
▁shinpai	-9.37716
▁chance	-9.37718
▁blood	-9.37826
▁country	-9.37945
▁seikatsu	-9.37948
▁settei	-9.37954
▁umaku	-9.38062
▁tomodachi	-9.38194
▁bu	-9.38324
▁jinsei	-9.384
▁hold	-9.38417
▁Her	-9.38529
▁power	-9.38641
▁information	-9.38643
▁cold	-9.38664
▁sha	-9.38703
▁renraku	-9.38863
▁shuu	-9.38875
▁become	-9.38886
gata	-9.38903
▁Ri	-9.38942
▁kinou	-9.39027
▁mizu	-9.39051
▁iki	-9.39065
▁save	-9.39139
▁kanji	-9.39194
▁sister	-9.39234
▁juubun	-9.3945
▁drink	-9.39453
▁shin	-9.39514
▁ikou	-9.39685
shu	-9.39687
▁mitsuketa	-9.39718
▁himself	-9.39758
▁seikou	-9.39819
▁Ga	-9.39856
▁seems	-9.3989
▁send	-9.39913
▁haitte	-9.39965
▁food	-9.40004
▁sen	-9.40005
▁eigo	-9.4001
▁Mama	-9.40094
▁full	-9.40232
ton	-9.40395
▁P	-9.40414
▁jiken	-9.40482
▁ou	-9.40497
▁small	-9.40675
▁upon	-9.40727
▁trust	-9.41027
▁en	-9.41065
▁shinakereba	-9.41072
▁Man	-9.41092
tto	-9.41101
run	-9.41168
rareru	-9.41171
▁koroshita	-9.41194
pu	-9.41238
▁Amerika	-9.41361
rareta	-9.41519
▁onegai	-9.41933
▁modotte	-9.41947
▁kuni	-9.42131
▁nari	-9.42235
▁ai	-9.42275
▁whatever	-9.42345
▁though	-9.42409
▁shot	-9.42463
▁Asu	-9.42525
▁iro	-9.42594
▁body	-9.42736
▁shu	-9.42792
shin	-9.4289
shitsu	-9.42908
▁tadashii	-9.42958
▁office	-9.43118
▁imashita	-9.43227
▁Sugu	-9.43361
▁shiteta	-9.4355
▁Dame	-9.43696
▁dekita	-9.43719
▁benkyou	-9.4377
▁Stop	-9.44257
▁Donna	-9.4448
▁sleep	-9.44556
▁check	-9.44606
▁alive	-9.44617
▁Oretachi	-9.44768
▁kashira	-9.44788
▁Nen	-9.44911
▁fight	-9.44988
▁Ja	-9.45038
▁war	-9.45096
▁ike	-9.45096
▁baka	-9.45149
▁running	-9.45311
men	-9.45378
▁kid	-9.45585
▁fact	-9.45589
▁yuujin	-9.45609
▁...	-9.4567
▁Dad	-9.45704
▁Which	-9.46391
gen	-9.46422
▁meeting	-9.46512
▁Some	-9.46656
▁Hello	-9.46692
▁supposed	-9.46702
▁Jikan	-9.46704
▁hotondo	-9.46761
▁Papa	-9.46928
▁tabi	-9.47086
▁class	-9.47315
kei	-9.47332
▁stuff	-9.47397
▁shinkou	-9.47405
hi	-9.47408
▁yarou	-9.47409
▁jiko	-9.47436
▁korosu	-9.47561
▁mine	-9.47583
son	-9.47642
▁Re	-9.47762
▁kaeru	-9.47765
sai	-9.47903
▁list	-9.4817
▁words	-9.48301
▁parents	-9.48388
▁worry	-9.48409
▁doctor	-9.48482
▁possible	-9.48677
▁ho	-9.48705
▁jissai	-9.48732
▁Listen	-9.48795
▁anzen	-9.48799
▁atai	-9.48994
▁learn	-9.49021
▁amari	-9.49032
k	-9.49046
▁shuukan	-9.49359
▁Nothing	-9.49528
▁turned	-9.49578
▁system	-9.49723
▁Japan	-9.49901
▁sense	-9.49969
▁Ne	-9.49974
▁Chigau	-9.50124
▁others	-9.50187
▁shito	-9.50225
▁met	-9.50285
▁izen	-9.50313
▁kan	-9.50436
▁igai	-9.50454
▁musume	-9.50482
▁mei	-9.50603
P	-9.50629
▁Tada	-9.50692
▁half	-9.50866
▁moment	-9.50885
▁lives	-9.50965
mon	-9.51187
▁trouble	-9.51468
▁Ya	-9.51487
▁bai	-9.51525
▁customer	-9.51528
dan	-9.51561
▁Gomen	-9.51678
▁nakama	-9.5173
▁Ichi	-9.51793
▁pa	-9.5182
▁Would	-9.51892
▁fast	-9.51959
▁almost	-9.52106
▁kawa	-9.52112
▁Could	-9.5222
rou	-9.52241
▁hajimete	-9.52357
▁bed	-9.52402
▁human	-9.52607
▁six	-9.52679
▁taihen	-9.52742
▁break	-9.52798
em	-9.52808
▁less	-9.5288
▁waiting	-9.52901
▁looked	-9.5314
▁along	-9.53379
han	-9.53443
▁Ato	-9.53499
▁bakari	-9.53526
▁write	-9.53669
▁teacher	-9.53695
▁suruto	-9.53969
▁tsuma	-9.5405
ron	-9.54242
ch	-9.54353
▁Ken	-9.54483
▁kantan	-9.54494
▁han	-9.54604
▁dore	-9.5472
▁Jaa	-9.54759
▁tasuke	-9.54839
▁shinu	-9.54973
mashou	-9.55131
▁kuchi	-9.55153
▁hyouji	-9.55252
▁With	-9.55392
▁promise	-9.55402
▁huh	-9.55422
▁station	-9.55439
▁return	-9.5548
▁Chichi	-9.55524
▁Tokyo	-9.55547
▁teki	-9.55555
▁either	-9.55657
▁Arigatou	-9.55783
▁product	-9.55805
▁chuui	-9.55816
▁couple	-9.55896
▁taken	-9.56006
▁fear	-9.56208
▁Furansu	-9.56238
▁2	-9.56317
▁building	-9.56349
▁front	-9.5645
2	-9.56485
▁irun	-9.56499
▁fuku	-9.56666
▁hen	-9.56691
▁koe	-9.56694
▁imasen	-9.56734
▁age	-9.56772
▁Say	-9.56818
▁kesshite	-9.56863
▁areba	-9.56865
▁sugiru	-9.56935
dou	-9.57148
▁jikkou	-9.57516
daro	-9.57606
▁oto	-9.57757
able	-9.57796
eru	-9.57872
▁shinaide	-9.57928
▁minute	-9.57973
lo	-9.58067
▁Those	-9.58117
el	-9.58126
▁takai	-9.58189
▁Ie	-9.58337
▁daughter	-9.58444
w	-9.58453
▁Him	-9.58495
▁stand	-9.58499
ion	-9.58516
▁inu	-9.58517
▁team	-9.58524
▁waga	-9.58577
▁shiki	-9.58616
b	-9.58618
▁kagiri	-9.58761
▁accident	-9.5882
▁May	-9.5883
▁shirushi	-9.58887
▁future	-9.58911
▁tsuita	-9.58916
▁shippai	-9.59093
▁oretachi	-9.5929
▁outside	-9.59309
▁B	-9.59336
▁tegami	-9.59408
▁monotachi	-9.59445
▁yonde	-9.59583
▁anta	-9.59711
▁sasete	-9.59833
▁yes	-9.59848
▁kaette	-9.59854
▁za	-9.59867
▁arareru	-9.59955
E	-9.59978
▁Aru	-9.59984
▁sort	-9.59992
▁Motto	-9.60079
▁shitan	-9.60225
▁shou	-9.60293
▁Mo	-9.60351
▁Even	-9.60487
▁kansha	-9.60525
▁ke	-9.60642
▁living	-9.60825
▁follow	-9.60963
▁furi	-9.6122
h	-9.61317
▁Ji	-9.61348
▁kikai	-9.61426
▁sae	-9.61472
▁anymore	-9.61582
▁nain	-9.62078
den	-9.62081
▁Se	-9.62149
▁figure	-9.6224
▁shashin	-9.62281
▁D	-9.62387
▁thank	-9.62436
▁months	-9.62543
▁Su	-9.62782
▁telling	-9.62922
▁ikutsu	-9.62933
▁koudou	-9.62996
▁okonau	-9.63108
▁Thanks	-9.63258
▁miro	-9.63259
▁bus	-9.63819
▁hour	-9.63844
bito	-9.63862
dai	-9.63864
▁past	-9.6395
tara	-9.63977
▁3	-9.63982
ur	-9.63997
▁Fu	-9.64098
▁Tai	-9.64192
▁hot	-9.64271
hou	-9.64552
▁large	-9.6461
C	-9.64613
▁ikanai	-9.64615
▁drive	-9.64751
ai	-9.64906
shita	-9.64927
▁katte	-9.64935
the	-9.64936
▁tsukete	-9.65001
▁crazy	-9.65031
▁month	-9.65059
▁chuushin	-9.65163
▁Kodomo	-9.65206
▁dekimasen	-9.65268
▁kakete	-9.65331
pa	-9.65456
▁Chi	-9.65577
▁key	-9.65614
▁haha	-9.65898
▁wakatteru	-9.659
▁tsuku	-9.66071
la	-9.66141
▁mon	-9.66199
▁G	-9.66209
▁10	-9.66256
▁subarashii	-9.66279
▁asu	-9.663
▁known	-9.66329
▁Yo	-9.66426
▁au	-9.6652
▁zu	-9.66529
▁Mochiron	-9.66599
▁French	-9.66671
▁byouki	-9.66687
▁pati	-9.66712
▁After	-9.66738
▁questions	-9.66788
▁Tabun	-9.66817
▁sonzai	-9.66831
taku	-9.66878
B	-9.66926
▁shinakatta	-9.66942
▁Excuse	-9.67144
▁whether	-9.67202
▁study	-9.67247
▁mise	-9.67309
▁--	-9.67353
▁eiga	-9.67422
▁Japanese	-9.67476
▁husband	-9.67484
▁sunde	-9.67511
▁kanou	-9.6761
▁Yaa	-9.67766
ho	-9.6795
▁OK	-9.68087
▁longer	-9.68097
T	-9.68142
▁ye	-9.682
▁hana	-9.68464
▁Sha	-9.68555
▁Sate	-9.68557
▁ame	-9.68563
▁needs	-9.68623
▁red	-9.6867
▁Keep	-9.68689
▁difficult	-9.68706
▁sousa	-9.68717
▁Ra	-9.68882
▁forget	-9.69013
▁Day	-9.69142
▁account	-9.69318
▁early	-9.69363
▁saikou	-9.69447
▁cost	-9.69538
▁Ro	-9.69576
▁yume	-9.6958
▁among	-9.69621
▁keiji	-9.69741
▁riyou	-9.69836
▁san	-9.69879
▁shinjitsu	-9.70113
▁air	-9.70131
▁video	-9.70155
▁control	-9.70174
▁Kuruma	-9.70264
di	-9.70266
▁ku	-9.70348
▁Korera	-9.70503
▁ship	-9.70713
▁sick	-9.70718
▁choubatsu	-9.70791
▁whom	-9.7091
▁aite	-9.70959
▁ryou	-9.70969
▁x	-9.70981
▁muri	-9.71021
▁shimashou	-9.71093
▁joukyou	-9.71209
▁test	-9.71289
▁tsumari	-9.71324
▁lose	-9.7139
▁hate	-9.71466
▁message	-9.71484
▁joutai	-9.715
▁tsumi	-9.71552
▁Kuso	-9.71558
▁books	-9.71633
▁married	-9.71637
▁Kai	-9.71794
▁women	-9.71795
zai	-9.71909
▁inochi	-9.7202
0	-9.72131
▁chigai	-9.72135
▁Shin	-9.72259
▁kurasu	-9.72322
▁Arra	-9.72328
▁gets	-9.72447
▁risuto	-9.72826
▁keisatsu	-9.72857
ran	-9.73024
▁sound	-9.73111
▁top	-9.73178
▁kurenai	-9.73201
▁itteru	-9.73332
▁Kotchi	-9.73521
▁owari	-9.7356
ian	-9.73619
▁Put	-9.7369
ity	-9.73736
▁minasan	-9.7376
▁Ben	-9.73766
▁Onegai	-9.73895
▁machine	-9.73923
▁People	-9.74024
▁omoi	-9.74051
it	-9.74076
▁mate	-9.74149
▁worked	-9.74152
▁touch	-9.74179
▁sit	-9.74214
▁hanashita	-9.74315
▁playing	-9.74349
▁sun	-9.7446
▁students	-9.7458
▁Kon	-9.74734
nakereba	-9.74826
▁kotae	-9.74974
co	-9.74989
▁Keisatsu	-9.75002
▁shiru	-9.75008
▁aren	-9.75015
▁everybody	-9.75088
▁kyoku	-9.75163
▁murder	-9.75229
▁ikimasu	-9.75273
▁works	-9.75339
▁Sei	-9.75367
▁dad	-9.75395
▁kyoumi	-9.75624
▁dinner	-9.75955
▁catch	-9.76013
▁yama	-9.76167
▁N	-9.763
▁Ba	-9.76307
▁short	-9.76342
▁moji	-9.7655
▁letter	-9.76563
▁hairu	-9.76567
▁bought	-9.7661
▁ahead	-9.76689
▁ooi	-9.7675
▁somebody	-9.76832
▁shimau	-9.76974
▁picture	-9.76976
▁code	-9.77021
chan	-9.77091
▁sake	-9.77171
▁Sukoshi	-9.77271
▁wakatte	-9.7733
▁yu	-9.77489
▁pick	-9.77535
desho	-9.77551
▁hair	-9.77732
un	-9.77759
ment	-9.77824
▁kagi	-9.77984
▁happens	-9.7801
mei	-9.78017
▁Yoi	-9.78032
▁henkou	-9.78188
katta	-9.78205
▁motsu	-9.78477
▁hitotachi	-9.78493
▁20	-9.7855
▁chikaku	-9.7856
▁jiyuu	-9.78689
shite	-9.78739
▁Fuck	-9.7879
▁busy	-9.78792
po	-9.78793
▁machigai	-9.78853
▁sign	-9.78975
pe	-9.78982
▁Shigoto	-9.79063
▁shugi	-9.79292
▁Jack	-9.79293
▁F	-9.79326
▁except	-9.79342
▁ishi	-9.79355
▁kaiketsu	-9.79362
▁keisan	-9.79409
▁kids	-9.7965
▁type	-9.7969
▁Maa	-9.79692
gaku	-9.79711
sama	-9.79869
▁arugorizumu	-9.79878
▁Two	-9.80044
ting	-9.8005
ry	-9.8009
▁torihiki	-9.80108
▁nomi	-9.80323
▁saremasu	-9.80388
▁Juu	-9.805
▁hospital	-9.80554
▁kigyou	-9.80632
▁Kinou	-9.8073
▁lie	-9.80861
▁Ten	-9.80897
▁present	-9.80999
▁surun	-9.81068
f	-9.81117
▁By	-9.81174
▁million	-9.81229
▁coffee	-9.81246
ce	-9.8134
▁kyuu	-9.81368
▁strong	-9.81479
▁mikata	-9.81501
▁kept	-9.81555
▁shitei	-9.81615
▁window	-9.81695
▁tired	-9.81719
▁muzukashii	-9.81747
ation	-9.81866
▁kiroku	-9.81886
▁rather	-9.82016
▁nakute	-9.82148
▁narimasen	-9.82194
▁arun	-9.82277
▁Mom	-9.82312
▁zenin	-9.82409
▁Hold	-9.82435
▁souzou	-9.82509
▁Hayaku	-9.8258
▁dekinakatta	-9.82589
▁sudeni	-9.82634
▁nanka	-9.82839
▁near	-9.82929
ic	-9.83002
▁taisuru	-9.83027
▁report	-9.83211
▁nagai	-9.83253
▁chimu	-9.83377
▁Mu	-9.83389
▁interesting	-9.83403
▁felt	-9.83414
▁ain	-9.83498
▁kangaeru	-9.83513
▁pen	-9.83538
▁kurete	-9.83552
ren	-9.83578
▁iin	-9.83633
▁oi	-9.83948
▁kiku	-9.8396
▁Does	-9.84035
▁fune	-9.84062
▁Saisho	-9.84188
▁Rei	-9.84233
▁Saigo	-9.84373
ness	-9.8439
▁dream	-9.84449
▁finally	-9.84454
▁doa	-9.84465
▁clean	-9.84566
▁music	-9.84585
▁sagashite	-9.84592
▁indeed	-9.84595
▁Mina	-9.84616
▁asa	-9.84635
▁hakase	-9.84644
▁kawari	-9.84646
▁mokuteki	-9.84674
▁secret	-9.84679
▁learning	-9.84798
▁chichioya	-9.8507
▁black	-9.85226
▁ippai	-9.85228
▁table	-9.8526
▁caught	-9.85308
li	-9.85369
min	-9.85545
▁shouhin	-9.85575
▁kanousei	-9.85657
▁feeling	-9.85659
pi	-9.85662
mono	-9.85687
shiki	-9.85862
▁shiawase	-9.85884
kata	-9.85898
▁hajimeta	-9.8602
▁takes	-9.86044
▁pass	-9.8608
▁Atarashii	-9.86114
▁Ah	-9.86128
▁nakereba	-9.8622
▁tashika	-9.86285
▁Kami	-9.86314
▁sorera	-9.86322
▁inakatta	-9.86368
▁bunseki	-9.86444
▁shikashi	-9.86454
▁meirei	-9.86463
▁street	-9.86481
▁worth	-9.86575
▁M	-9.86581
▁Hora	-9.8663
up	-9.86695
▁shinjite	-9.86756
▁Jane	-9.8677
▁Sir	-9.86836
▁bangou	-9.86841
▁kitto	-9.86877
▁land	-9.86893
▁asking	-9.86931
▁sometimes	-9.86952
▁jihi	-9.86984
▁market	-9.86989
▁keiken	-9.87167
▁sho	-9.87232
cha	-9.87311
▁Help	-9.87329
▁Bun	-9.87385
▁during	-9.87403
▁boys	-9.87472
▁mamoru	-9.87729
goto	-9.87786
▁seem	-9.87788
teru	-9.88049
kaku	-9.88087
▁Itte	-9.88097
▁across	-9.88112
▁meru	-9.88191
▁kanjou	-9.88201
yaku	-9.88275
▁Jo	-9.88301
▁kaite	-9.88302
▁shouko	-9.88499
▁store	-9.88508
▁Denwa	-9.88635
ie	-9.88687
am	-9.88717
▁computer	-9.88731
▁San	-9.8874
▁mistake	-9.88788
▁uta	-9.88807
▁kanari	-9.88866
▁modoru	-9.88928
▁shisutemu	-9.89007
▁reading	-9.89022
▁customers	-9.89148
▁evil	-9.89236
▁Ho	-9.89252
▁equal	-9.89259
▁miss	-9.89295
▁himitsu	-9.89412
▁road	-9.8943
vi	-9.89546
▁Make	-9.89653
▁p	-9.89666
kyou	-9.89705
▁Waga	-9.89752
ban	-9.89851
▁gakushuu	-9.89892
▁eye	-9.89992
▁glad	-9.90042
▁Dono	-9.9008
▁mitsukeru	-9.90094
▁price	-9.90147
▁bideo	-9.90209
▁tami	-9.90269
▁dark	-9.90314
▁missing	-9.90384
▁katta	-9.90395
▁youso	-9.9042
naraba	-9.90455
▁kimashita	-9.90528
koku	-9.90585
▁Dai	-9.9065
▁choice	-9.90655
▁Issho	-9.90699
M	-9.90739
▁Wo	-9.90817
▁created	-9.90907
▁Um	-9.90979
ling	-9.91092
▁gomen	-9.91105
▁themselves	-9.91142
▁haitta	-9.91143
▁shuppatsu	-9.91147
▁white	-9.9124
rai	-9.91299
▁seeing	-9.91361
▁tasukete	-9.91513
▁basu	-9.91586
▁language	-9.91681
▁paid	-9.91795
▁jou	-9.91926
▁zen	-9.91981
▁daigaku	-9.91982
▁Everything	-9.91991
▁shounen	-9.92046
▁boss	-9.92114
▁single	-9.92173
▁Mazu	-9.92208
▁broke	-9.92209
▁girls	-9.92223
▁idou	-9.92299
▁papa	-9.92519
▁kougeki	-9.92569
▁ro	-9.92581
ck	-9.92596
gan	-9.926
reru	-9.92716
▁shut	-9.92795
▁moving	-9.92853
▁okotta	-9.92863
▁itteta	-9.92913
▁leaving	-9.92924
▁Stay	-9.92933
▁Any	-9.93024
▁forward	-9.93118
▁First	-9.93184
▁Got	-9.93219
▁tsukuru	-9.9326
▁omotteru	-9.933
▁certain	-9.93402
▁Jen	-9.93427
▁kazu	-9.93431
▁deru	-9.9348
age	-9.93573
▁oki	-9.93637
▁needed	-9.93658
▁stupid	-9.93702
▁Every	-9.93706
▁Ke	-9.93721
▁Nani	-9.93738
R	-9.93777
est	-9.93803
▁wonder	-9.93885
▁ureshii	-9.93994
▁changed	-9.93996
▁ataeru	-9.94033
▁poor	-9.94143
rs	-9.94147
seki	-9.94193
▁cause	-9.94197
▁protect	-9.94234
▁Matte	-9.94387
▁ge	-9.94461
▁position	-9.94473
▁evidence	-9.94485
▁eikyou	-9.94489
▁karada	-9.947
▁kouka	-9.94824
▁shinrai	-9.94844
▁shouldn	-9.94855
▁unten	-9.94947
▁box	-9.95027
▁hikou	-9.95031
▁nor	-9.95103
▁biru	-9.95133
▁decided	-9.95178
▁usually	-9.95201
▁Jesus	-9.95212
▁Kan	-9.95246
hin	-9.95276
▁support	-9.95281
▁damn	-9.95282
▁piece	-9.95304
▁seki	-9.95333
▁Anna	-9.95359
▁ikite	-9.95359
▁tsuke	-9.95419
▁kagetsu	-9.95471
▁dekite	-9.95483
▁hakken	-9.95541
▁taiho	-9.95591
and	-9.95623
▁Kochira	-9.9563
▁yatsura	-9.95747
▁dashi	-9.95781
ite	-9.95855
▁brand	-9.95905
▁ashi	-9.9612
▁iken	-9.96126
▁dochira	-9.9616
▁eki	-9.96244
▁y	-9.96355
▁sakusei	-9.9636
▁jitsu	-9.96394
▁Yatsura	-9.96496
▁fall	-9.96528
▁kimochi	-9.96547
yu	-9.96715
▁talked	-9.96769
suto	-9.96802
▁choose	-9.97142
ia	-9.97188
▁muda	-9.97208
▁finished	-9.9729
shuu	-9.97418
▁Mae	-9.97462
▁bitch	-9.97507
▁security	-9.97511
▁zero	-9.97524
▁cool	-9.97526
F	-9.9756
▁Toki	-9.97706
▁fell	-9.97723
▁sare	-9.97737
▁Po	-9.97752
▁address	-9.97776
▁kenkyuu	-9.97857
▁shitenai	-9.97863
▁Konya	-9.97893
▁motteru	-9.97952
tei	-9.9801
▁ground	-9.98242
▁Pa	-9.98273
▁Something	-9.98316
▁tsukutta	-9.9846
▁Aitsu	-9.9847
mai	-9.98566
▁Sam	-9.98569
▁futari	-9.98589
▁anybody	-9.98589
▁step	-9.98894
nagara	-9.98897
▁satsujin	-9.98918
rarete	-9.98925
▁isha	-9.98961
▁special	-9.99057
▁kotchi	-9.99063
▁sensou	-9.99157
▁Only	-9.99213
▁kon	-9.99265
▁create	-9.99366
ar	-9.99398
▁hahaoya	-9.9941
▁Was	-9.99429
▁kitai	-9.99455
▁group	-9.99477
▁chiisana	-9.99688
▁gozaimasu	-9.99778
▁pain	-9.99819
hatsu	-9.99861
butsu	-9.9988
▁kodomotachi	-10.0004
▁till	-10.0004
▁kiki	-10.0006
▁saseta	-10.0008
▁careful	-10.0012
▁Shou	-10.0021
),	-10.0021
▁ieba	-10.0026
▁teikyou	-10.0033
▁government	-10.0034
▁kirai	-10.0041
▁hidoi	-10.0043
L	-10.0047
▁serious	-10.0048
▁Ge	-10.0057
▁Captain	-10.0071
▁spend	-10.0079
▁4	-10.0085
▁ball	-10.0087
▁genkin	-10.0089
jin	-10.0106
▁oo	-10.0109
▁Tatoeba	-10.0124
▁eru	-10.013
▁lead	-10.0131
▁kanzen	-10.0135
▁utsukushii	-10.0136
▁Uso	-10.0142
ng	-10.0145
▁misete	-10.0157
▁luck	-10.0162
N	-10.0171
▁yamete	-10.0181
▁instead	-10.0186
▁dasu	-10.0186
▁jidai	-10.0195
▁simple	-10.0198
▁somewhere	-10.0211
▁sekinin	-10.0218
▁From	-10.0231
juu	-10.0232
▁mukatte	-10.0237
▁York	-10.0239
▁jijitsu	-10.024
▁sarani	-10.024
bou	-10.0242
▁Hanashi	-10.0248
▁Never	-10.0259
▁trip	-10.0274
▁Miss	-10.0285
▁5	-10.0288
▁Sen	-10.0289
▁Ku	-10.0291
▁sea	-10.0298
▁tree	-10.03
▁surely	-10.0309
3	-10.0327
ate	-10.0343
▁kodo	-10.0355
▁kyoudai	-10.0355
▁Move	-10.0365
▁agree	-10.0368
▁shinja	-10.0369
▁Shut	-10.0371
▁Haha	-10.0372
▁futsuu	-10.0373
ei	-10.0375
▁weeks	-10.0379
▁Mite	-10.0384
▁within	-10.0385
▁Oo	-10.0386
tomo	-10.0389
▁watching	-10.0391
▁hey	-10.0391
bun	-10.0394
▁bubun	-10.0401
▁command	-10.0405
▁shisan	-10.0407
▁unto	-10.0409
▁shinde	-10.0415
▁retsu	-10.0424
▁win	-10.043
▁force	-10.0434
▁date	-10.0435
▁kakaru	-10.0443
▁shoot	-10.0459
▁Agent	-10.0459
▁Shon	-10.0463
▁training	-10.0467
▁u	-10.0474
▁Everyone	-10.0479
▁calling	-10.048
ist	-10.0485
▁mimashou	-10.0492
ty	-10.0502
▁Sure	-10.0507
▁katsudou	-10.0508
▁cat	-10.0515
You	-10.0521
▁share	-10.0539
▁yotei	-10.0544
▁kibun	-10.0544
▁Tashika	-10.0546
▁chousa	-10.055
▁Someone	-10.0566
▁expect	-10.0569
▁plane	-10.0569
▁morau	-10.0575
reta	-10.0579
▁kyouryoku	-10.0579
▁Nice	-10.0589
▁shiremasen	-10.0601
▁attack	-10.0604
▁fukai	-10.0605
▁straight	-10.0605
▁above	-10.0615
▁ohanashi	-10.0616
▁ryoushin	-10.0618
of	-10.0635
▁kikan	-10.0646
▁oboete	-10.065
▁sugata	-10.0657
▁saved	-10.0658
▁angry	-10.0664
▁TV	-10.0665
▁kamera	-10.0671
▁floor	-10.0674
▁Jakku	-10.0678
▁knowledge	-10.0685
▁teigi	-10.0705
▁um	-10.0711
▁onnanoko	-10.0714
▁Nee	-10.0718
▁tou	-10.0719
▁visit	-10.0726
▁gakusei	-10.0746
▁shijou	-10.0767
▁bank	-10.077
▁became	-10.0773
rin	-10.0778
▁lived	-10.0781
▁kei	-10.0792
▁messeji	-10.0808
▁scared	-10.0808
▁utsu	-10.0814
▁W	-10.0819
▁Douzo	-10.0819
▁health	-10.082
▁program	-10.0823
▁mukashi	-10.0834
▁ireta	-10.0841
zen	-10.0842
▁Totemo	-10.0843
▁Yamete	-10.0845
▁Show	-10.0858
▁happening	-10.0863
▁irete	-10.0866
ter	-10.0868
▁killer	-10.0869
ted	-10.0871
▁itai	-10.0872
▁sousakan	-10.0876
▁ryokou	-10.0883
▁subeki	-10.0887
sh	-10.0891
▁taishi	-10.0913
▁algorithm	-10.0913
▁situation	-10.0913
▁kenmei	-10.0916
▁suwatte	-10.0934
▁doryoku	-10.0942
K	-10.0947
▁miyou	-10.0954
naide	-10.096
▁interest	-10.0961
▁stopped	-10.0965
ci	-10.0975
▁c	-10.0978
▁Most	-10.0983
shoku	-10.099
▁explain	-10.099
▁weather	-10.0995
▁kettei	-10.1005
▁okita	-10.1012
▁certainly	-10.102
▁Jitsu	-10.1021
▁Nobody	-10.1026
▁ageru	-10.1038
va	-10.1046
▁mom	-10.1048
▁toru	-10.1051
▁sight	-10.1051
▁bag	-10.1051
zoku	-10.1053
▁shiken	-10.1054
▁bar	-10.1057
▁douzo	-10.1059
▁ongaku	-10.1061
▁Ara	-10.1062
▁La	-10.1062
▁worse	-10.1072
▁arrived	-10.1073
▁tanomu	-10.1074
▁seven	-10.1075
▁Sara	-10.1075
▁movie	-10.1079
▁text	-10.1084
▁offer	-10.109
▁tatsu	-10.1097
▁Shinpai	-10.1098
▁history	-10.1098
▁tsuika	-10.111
▁zettai	-10.1118
▁kirei	-10.1119
▁Whatever	-10.1125
▁Ittai	-10.1131
▁fault	-10.1131
U	-10.1136
▁chikai	-10.1139
▁gives	-10.1139
▁Sho	-10.1145
naku	-10.1159
▁okonai	-10.117
z	-10.1172
▁American	-10.1176
▁respect	-10.1184
▁hara	-10.1191
▁kake	-10.1191
▁access	-10.1192
▁doubt	-10.1192
▁nenkan	-10.1198
▁vector	-10.1198
▁balance	-10.1201
ruto	-10.1204
▁kado	-10.1206
▁files	-10.1208
▁Ningen	-10.1222
▁none	-10.1226
fi	-10.1229
▁river	-10.1231
nakute	-10.1232
▁raise	-10.1232
▁law	-10.1236
rei	-10.1237
▁America	-10.124
▁dangerous	-10.1243
▁kansuru	-10.1243
▁Samu	-10.1247
G	-10.1248
▁En	-10.125
▁chou	-10.1254
▁seihin	-10.1261
▁born	-10.1263
▁King	-10.1274
▁pull	-10.1275
▁evening	-10.1278
▁crime	-10.1279
▁terebi	-10.1285
▁kanshi	-10.1288
▁Dan	-10.129
▁Uchi	-10.1302
▁Great	-10.1306
▁okite	-10.1312
▁paper	-10.1315
▁space	-10.1316
▁mimi	-10.1324
▁level	-10.1326
▁akiraka	-10.1329
▁mushi	-10.1334
▁error	-10.1337
▁hotel	-10.1339
▁shirase	-10.1341
jo	-10.136
▁era	-10.1367
▁uru	-10.1376
▁tea	-10.1379
▁bekutoru	-10.1382
▁rieki	-10.1385
▁attention	-10.1391
▁ryouri	-10.1396
▁otto	-10.14
▁L	-10.1407
▁miruto	-10.1417
▁choudo	-10.1425
(	-10.1428
▁furui	-10.1431
▁dashita	-10.1433
▁mazu	-10.1438
▁douyou	-10.144
▁failed	-10.1448
▁rich	-10.1451
▁bi	-10.1451
▁houkoku	-10.1458
▁kubi	-10.1459
▁common	-10.1472
▁Toshi	-10.1477
▁shinjiru	-10.149
▁hannin	-10.1493
▁peace	-10.1497
▁advice	-10.1497
▁Namae	-10.1499
▁byouin	-10.1501
▁entire	-10.1504
▁ori	-10.1508
▁lady	-10.1509
▁nyuuryoku	-10.1519
▁genzai	-10.1519
▁voice	-10.1527
▁Shu	-10.1531
▁okoru	-10.1535
▁tatte	-10.1545
▁finish	-10.1556
▁public	-10.1569
▁model	-10.1572
kka	-10.1575
rarenai	-10.1578
▁Kin	-10.1598
▁object	-10.1598
▁houkou	-10.1606
▁seikaku	-10.1617
▁para	-10.1618
▁Ru	-10.1618
▁ichibu	-10.1629
▁Watashi	-10.1631
▁experience	-10.1635
nda	-10.1636
▁daiji	-10.1639
▁tsune	-10.1642
▁youi	-10.1643
▁kenkou	-10.1651
▁boat	-10.1665
▁ones	-10.1676
il	-10.1676
▁decision	-10.168
▁drop	-10.1683
▁size	-10.1688
▁gi	-10.1688
▁dashite	-10.1692
▁ireru	-10.1697
au	-10.1703
▁Tasukete	-10.1706
▁con	-10.1708
ive	-10.1711
▁yuiitsu	-10.1714
▁completely	-10.1717
▁perfect	-10.1721
▁anyway	-10.1728
▁kakeru	-10.173
▁cover	-10.173
▁setto	-10.1731
▁passed	-10.1734
▁Yu	-10.1736
▁service	-10.1736
Y	-10.1747
▁netto	-10.1753
▁tokubetsu	-10.1758
▁problems	-10.1779
▁lunch	-10.178
▁Mondai	-10.178
▁koui	-10.1785
▁Betsu	-10.1785
▁spent	-10.1791
▁Baka	-10.1797
▁moderu	-10.1799
▁feet	-10.1801
ca	-10.1812
▁jinbutsu	-10.1813
▁student	-10.1814
What	-10.1817
▁Bi	-10.1827
▁genki	-10.1832
▁strange	-10.1832
at	-10.1843
▁sky	-10.1844
▁fuu	-10.1845
,"	-10.1859
▁credit	-10.1859
▁third	-10.1861
▁hantai	-10.1862
▁kotonaru	-10.1865
▁Open	-10.187
▁act	-10.187
▁shokuji	-10.1871
▁owatta	-10.1875
▁Everybody	-10.1891
▁path	-10.1892
ware	-10.1896
▁weren	-10.1896
▁lying	-10.1902
▁funny	-10.1903
▁gurai	-10.1904
▁gen	-10.1912
▁giving	-10.1913
▁moratta	-10.1919
less	-10.1919
▁enjoy	-10.1924
▁shinyou	-10.1931
▁tsuyoi	-10.1935
▁sorezore	-10.1947
dakara	-10.195
mp	-10.1959
sui	-10.1959
▁Last	-10.1959
▁okage	-10.196
"?	-10.1976
▁bo	-10.1979
▁success	-10.1979
▁state	-10.1982
▁hyou	-10.1987
▁osore	-10.199
▁shori	-10.1995
▁Call	-10.1996
▁kitan	-10.2008
▁view	-10.2012
▁Ai	-10.2013
ppu	-10.2016
▁thanks	-10.2024
▁kaze	-10.2029
▁wakai	-10.2036
▁burando	-10.204
▁hoteru	-10.2042
▁suteki	-10.2059
▁summer	-10.206
▁zentai	-10.2062
▁konai	-10.2065
▁ikura	-10.2066
▁loved	-10.2067
▁mainichi	-10.2094
▁yonda	-10.2107
).	-10.2113
we	-10.2115
▁blue	-10.2116
▁tabun	-10.2118
▁fish	-10.2119
▁interested	-10.2124
beki	-10.2127
▁byou	-10.2128
▁record	-10.213
▁king	-10.2132
▁Hon	-10.2132
▁Really	-10.2134
▁wakarimasu	-10.2142
▁taberu	-10.2148
▁contact	-10.2149
▁cell	-10.2149
▁Peter	-10.2158
ies	-10.2158
▁snow	-10.2165
ita	-10.2172
▁area	-10.218
▁Koitsu	-10.2195
▁gyouretsu	-10.2197
▁kaishi	-10.2204
▁add	-10.2205
▁Ban	-10.2207
▁touchaku	-10.2209
▁low	-10.2213
▁totta	-10.2219
▁began	-10.222
▁Nu	-10.2226
▁piano	-10.2231
▁aware	-10.2242
▁sugoi	-10.2243
us	-10.2255
▁handle	-10.2255
ddo	-10.2256
bekida	-10.2262
▁nani	-10.227
▁hakai	-10.2274
▁mouth	-10.2275
We	-10.2276
▁anywhere	-10.2278
▁Shit	-10.2281
▁fukaku	-10.2283
▁Book	-10.2301
sareta	-10.2302
▁Mm	-10.2309
▁weird	-10.2312
▁yuukou	-10.2315
▁fumei	-10.2322
▁camera	-10.2323
▁gyou	-10.2331
▁kusuri	-10.2336
nakya	-10.2346
kki	-10.2351
▁H	-10.2352
▁youkyuu	-10.2358
▁result	-10.236
▁difference	-10.2367
▁imagine	-10.237
▁welcome	-10.2371
▁omoshiroi	-10.238
▁gijutsu	-10.2383
▁furo	-10.2384
▁shoukai	-10.2393
▁shiterun	-10.2394
The	-10.2394
▁field	-10.2395
▁Sensei	-10.2398
▁color	-10.2398
▁sweet	-10.2406
▁yobu	-10.2406
▁kizu	-10.2407
▁sell	-10.2409
▁search	-10.2415
▁process	-10.2425
▁quick	-10.2434
▁Red	-10.245
▁keikan	-10.2458
▁seat	-10.2458
he	-10.246
▁kanshite	-10.2462
▁kimasu	-10.2466
▁tabe	-10.2475
▁carry	-10.2483
iki	-10.2489
▁meta	-10.249
▁theta	-10.2491
▁kuso	-10.2492
▁punishment	-10.25
▁30	-10.2502
▁Pe	-10.2506
▁bako	-10.2507
▁henka	-10.2512
▁quickly	-10.2527
moto	-10.2534
▁kin	-10.2535
▁normal	-10.2536
cause	-10.2541
▁iji	-10.2547
▁killing	-10.2547
▁kagaku	-10.2548
▁ginkou	-10.2572
▁chekku	-10.2574
▁bou	-10.2579
▁quiet	-10.258
▁song	-10.2585
▁shinri	-10.2587
▁fair	-10.2591
▁due	-10.2595
▁hataraite	-10.2595
▁energy	-10.2595
▁giron	-10.2596
▁following	-10.26
▁kochira	-10.2608
▁Wow	-10.261
ju	-10.2612
▁dress	-10.2614
▁victim	-10.2619
ff	-10.2629
atta	-10.2633
is	-10.264
▁built	-10.2643
lu	-10.2644
▁faith	-10.2645
▁idai	-10.2648
▁favor	-10.2655
▁yare	-10.2655
nu	-10.266
▁umi	-10.2661
▁shimasen	-10.2668
▁tesuto	-10.2689
▁daisuki	-10.2692
▁dollars	-10.2693
▁Bo	-10.2703
▁hozon	-10.2704
▁eight	-10.2705
▁missed	-10.2714
▁Al	-10.2718
▁ass	-10.2727
▁Nai	-10.2743
▁ways	-10.2745
nou	-10.2747
▁speaking	-10.2761
▁helped	-10.2782
▁shiritai	-10.2792
▁throw	-10.2799
▁truck	-10.2801
▁chishiki	-10.2804
▁neko	-10.281
▁shurui	-10.2814
▁dattara	-10.2815
▁ushiro	-10.2816
▁puroguramu	-10.2816
▁examples	-10.2817
▁Lo	-10.2819
▁Mrs	-10.2821
▁kakaku	-10.2821
kon	-10.2824
▁park	-10.2825
▁Shitsurei	-10.2826
▁clothes	-10.2838
▁keikoku	-10.284
▁accept	-10.2845
▁hide	-10.2849
▁hanzai	-10.285
▁post	-10.2851
nde	-10.2862
▁ika	-10.2863
▁sumu	-10.2866
▁nouryoku	-10.2875
▁Mike	-10.2878
▁notice	-10.2883
▁otouto	-10.2887
▁writing	-10.2888
▁tatta	-10.2896
▁beat	-10.2901
▁Doa	-10.2905
▁jitai	-10.2911
▁ireba	-10.2912
▁taipu	-10.2912
▁build	-10.2915
▁12	-10.2915
▁wind	-10.2932
▁irai	-10.2937
▁tatoeba	-10.2937
▁konpyuta	-10.2939
▁suginai	-10.2947
▁Suki	-10.2948
▁shutsuryoku	-10.2949
▁ride	-10.2956
▁standing	-10.2958
▁Jim	-10.2962
▁Father	-10.2963
▁president	-10.297
▁kankyou	-10.2975
▁scene	-10.2985
▁chansu	-10.2999
▁thou	-10.2999
W	-10.3
▁futatsu	-10.3001
▁President	-10.3011
▁names	-10.3011
▁sora	-10.3012
▁uketa	-10.3014
▁charge	-10.3017
▁19	-10.3024
▁Saikin	-10.3024
▁shinsetsu	-10.3028
▁wearing	-10.3032
▁nee	-10.3034
keiten	-10.3041
▁signs	-10.3044
▁Very	-10.3049
ful	-10.3057
▁impossible	-10.3061
▁Kondo	-10.3068
rashii	-10.3072
▁kohi	-10.3082
▁Kiite	-10.3084
▁image	-10.3093
▁heavens	-10.3099
▁shoumei	-10.3099
▁Otoko	-10.31
▁tatakai	-10.31
▁Detective	-10.3111
▁shakai	-10.3113
kkusu	-10.3116
setsu	-10.3121
▁hang	-10.3121
▁risk	-10.3122
▁shima	-10.3123
▁taisetsu	-10.3125
▁shoujo	-10.3131
▁hiki	-10.3134
▁yatteru	-10.3136
▁Once	-10.3139
▁suta	-10.3145
▁honest	-10.3146
▁osoraku	-10.3149
▁keitai	-10.3152
▁bear	-10.3156
▁soshiki	-10.3157
▁Yamero	-10.3163
▁Pi	-10.3163
▁mukou	-10.3164
▁omotteta	-10.3165
▁seito	-10.3173
▁cross	-10.3174
H	-10.318
▁tsukeru	-10.3182
▁souchi	-10.3183
()	-10.3185
▁hei	-10.3187
▁tsukutte	-10.3189
▁Mizu	-10.3191
▁Zen	-10.3191
▁Kaku	-10.3198
▁natteru	-10.3198
▁terrible	-10.32
▁Rondon	-10.32
▁broken	-10.3201
▁utta	-10.3202
▁fit	-10.3203
▁learned	-10.3203
▁enemy	-10.3213
▁swear	-10.3213
▁amount	-10.3216
▁itara	-10.3217
▁match	-10.3222
▁Musuko	-10.3222
▁nobody	-10.3227
▁nichi	-10.3233
▁ate	-10.3237
▁Tou	-10.3238
▁personal	-10.324
▁Whoa	-10.3243
▁god	-10.3248
▁po	-10.325
▁Zenbu	-10.3253
▁useful	-10.3254
ster	-10.3261
▁current	-10.3261
v	-10.3264
▁whose	-10.3267
▁Hmm	-10.3269
▁enai	-10.3269
▁handan	-10.327
▁100	-10.3271
▁doubutsu	-10.3273
▁tsukai	-10.328
▁tokei	-10.3288
▁numbers	-10.3289
▁imouto	-10.3289
▁kyohi	-10.329
▁reach	-10.329
▁koukai	-10.3298
▁surprised	-10.3298
▁Turn	-10.33
▁Soto	-10.3301
zo	-10.3303
▁kari	-10.3304
▁tsuzukete	-10.3313
keru	-10.3321
▁mado	-10.3329
▁Welcome	-10.3331
▁statement	-10.3338
▁enter	-10.3341
tori	-10.3346
▁Am	-10.3347
▁waruku	-10.335
▁sounds	-10.335
▁herself	-10.3356
▁lucky	-10.3358
tion	-10.3358
▁patient	-10.336
▁prison	-10.3375
▁sugite	-10.3378
▁birthday	-10.3379
▁memory	-10.338
▁hasn	-10.3389
▁London	-10.3392
▁shourai	-10.3393
▁dear	-10.3396
▁soul	-10.3399
▁sase	-10.3405
▁hakkiri	-10.3407
▁income	-10.341
▁middle	-10.3418
▁flow	-10.3422
▁okutte	-10.3422
▁J	-10.3423
▁orareru	-10.3428
▁Kazoku	-10.3433
dashi	-10.3433
▁meant	-10.3436
▁ookii	-10.3437
▁kaita	-10.3439
ine	-10.3441
▁oyobi	-10.3444
▁rokku	-10.3447
▁Frank	-10.3454
▁per	-10.3459
don	-10.346
▁Naka	-10.3463
▁art	-10.3463
▁kiri	-10.3469
▁migi	-10.3476
▁taishou	-10.3477
▁okotte	-10.3478
▁shop	-10.3481
▁Since	-10.3484
▁isshou	-10.3492
▁boru	-10.3502
▁sanka	-10.3506
▁eien	-10.3511
▁Kitto	-10.3515
▁stick	-10.3519
soku	-10.3519
▁hurry	-10.3523
▁yours	-10.3526
▁rules	-10.3529
▁tsuzukeru	-10.3536
!"	-10.3545
▁speech	-10.3548
▁named	-10.3552
▁ani	-10.3556
▁card	-10.3559
▁oita	-10.3561
▁Han	-10.3563
▁suppose	-10.3563
▁Di	-10.3574
▁held	-10.3576
▁kako	-10.3576
▁Sai	-10.358
▁term	-10.358
tic	-10.3582
▁Biru	-10.3582
kyuu	-10.3585
▁Three	-10.359
▁gengo	-10.3591
▁jouzu	-10.3592
▁gawa	-10.3596
▁uncle	-10.3602
▁co	-10.3602
saku	-10.3604
▁yarikata	-10.3606
▁hyouka	-10.3609
▁Yuu	-10.3609
▁ikemasen	-10.3611
▁Ame	-10.3623
▁Kimitachi	-10.3627
▁brain	-10.3631
▁jo	-10.3633
▁weight	-10.3634
▁Doitsu	-10.3641
▁neither	-10.3642
▁toko	-10.3644
▁moved	-10.3651
▁proud	-10.3655
▁mochiron	-10.3656
▁rule	-10.3657
▁unless	-10.3657
mou	-10.366
▁Hitori	-10.3664
▁ill	-10.3665
▁Leave	-10.367
▁gatsu	-10.3673
raku	-10.3677
tsuki	-10.3677
▁Damn	-10.3682
▁Watch	-10.3686
It	-10.3687
".	-10.3689
▁allow	-10.3698
▁yomu	-10.3703
▁Dekiru	-10.3707
▁shiji	-10.3707
▁Hou	-10.3708
▁misu	-10.3712
▁tachi	-10.3714
▁g	-10.3721
▁decide	-10.3723
▁kangaeta	-10.3732
▁heavy	-10.3735
▁cha	-10.3739
betsu	-10.3742
▁ude	-10.3754
▁smart	-10.3758
▁college	-10.3762
▁worried	-10.3762
▁wear	-10.3772
▁sitting	-10.3777
▁katei	-10.3777
▁tanoshimi	-10.3789
▁shiai	-10.3791
▁narimashita	-10.3798
▁deep	-10.3799
▁weapon	-10.38
▁kanri	-10.3801
▁arm	-10.3805
▁okonatta	-10.3817
▁kashite	-10.3818
▁genin	-10.3823
▁About	-10.3831
gawa	-10.3833
▁hat	-10.3838
▁kaihatsu	-10.3843
▁yuumei	-10.3843
▁kidding	-10.3845
▁seichou	-10.3849
▁V	-10.3852
▁ittai	-10.3871
▁Minasan	-10.3876
▁Ooku	-10.3881
▁Machi	-10.3882
▁itself	-10.3893
▁target	-10.3899
▁kaketa	-10.3903
▁focus	-10.3909
▁earlier	-10.3911
▁banme	-10.3922
▁fix	-10.3923
▁Remember	-10.3927
▁begin	-10.3927
▁ra	-10.3934
ous	-10.3941
▁thousand	-10.3944
▁travel	-10.3951
for	-10.3954
▁Kara	-10.3954
ppa	-10.3955
▁itan	-10.3964
▁companies	-10.3966
▁Sugoi	-10.3966
▁Should	-10.397
▁agete	-10.3971
▁shiranakatta	-10.3971
tteru	-10.3985
▁Bill	-10.3986
▁Yokatta	-10.3988
▁Chuugoku	-10.3992
▁eating	-10.3992
▁kaigi	-10.4004
▁wrote	-10.4007
▁aruiha	-10.4007
▁bengoshi	-10.4008
▁osoreru	-10.4009
▁kabe	-10.4012
▁yosoku	-10.4016
▁local	-10.4017
▁promised	-10.4021
▁Indeed	-10.4029
▁katsu	-10.4038
▁kihon	-10.4041
▁matrix	-10.4049
▁aruite	-10.4052
▁Cho	-10.406
▁afternoon	-10.4062
▁ressha	-10.4063
▁Atama	-10.4064
▁kyoka	-10.4067
▁hundred	-10.4069
▁suit	-10.4071
▁written	-10.4079
▁received	-10.4084
▁Ou	-10.4086
per	-10.4086
▁kau	-10.4086
▁hajime	-10.4087
▁daitouryou	-10.4091
▁foot	-10.4097
▁FBI	-10.4104
▁tetsudatte	-10.4104
▁seconds	-10.4116
▁round	-10.4121
▁analysis	-10.4132
▁shidai	-10.4134
▁join	-10.4135
▁consider	-10.4143
▁tabete	-10.4144
▁ushinatta	-10.4146
suu	-10.4154
▁Gi	-10.4158
▁hayai	-10.4168
▁showed	-10.4168
▁sakujo	-10.4174
▁kioku	-10.4176
▁tasukeru	-10.4181
▁ookiku	-10.4182
▁turns	-10.4184
▁Their	-10.4185
▁seyo	-10.4194
▁Ms	-10.4197
▁Ari	-10.4205
▁uke	-10.4208
▁ugoki	-10.4211
▁tabako	-10.4217
▁available	-10.4219
▁aishiteru	-10.4219
eth	-10.4219
▁nioi	-10.4219
▁okeru	-10.4228
▁beginning	-10.423
▁terms	-10.4231
▁matsu	-10.4232
▁calls	-10.4237
▁kawaii	-10.4245
▁tokutei	-10.4245
▁believed	-10.4248
▁ataeta	-10.4256
▁bijinesu	-10.4259
▁mad	-10.4265
▁saikin	-10.4268
▁danger	-10.4269
▁Time	-10.427
▁pre	-10.4272
▁setsuzoku	-10.4273
▁calm	-10.4273
▁involved	-10.4274
suta	-10.4276
▁ire	-10.4281
▁miles	-10.4285
▁shiri	-10.431
▁dattan	-10.4311
▁hensuu	-10.4316
konde	-10.4317
▁Wakatteru	-10.432
▁Has	-10.4322
▁necessary	-10.4329
▁island	-10.433
▁Teki	-10.4331
▁Fairu	-10.4333
▁forever	-10.4336
▁aishite	-10.4339
▁tamashii	-10.4344
▁uma	-10.4345
▁products	-10.4347
Cause	-10.4349
▁Warui	-10.4353
hei	-10.4359
▁konya	-10.4363
▁count	-10.4364
▁likely	-10.4366
▁kakushin	-10.4369
▁Mukashi	-10.4372
shiwake	-10.4374
▁tomete	-10.4374
▁kutsu	-10.4375
▁seifu	-10.4377
▁track	-10.4382
▁mission	-10.4383
▁famous	-10.4386
▁closed	-10.439
▁k	-10.4393
▁Yakusoku	-10.4401
▁kawatta	-10.441
satsu	-10.4421
5	-10.4424
▁Fire	-10.4428
▁yomi	-10.4431
▁Check	-10.4436
ary	-10.4437
▁machigatte	-10.444
▁Wakaranai	-10.4445
▁smoke	-10.4446
▁smell	-10.4449
kko	-10.4456
▁jigoku	-10.4459
▁Mother	-10.4459
▁homework	-10.446
▁undou	-10.4462
▁particular	-10.4469
▁bin	-10.4477
▁walked	-10.4481
▁mention	-10.4485
▁swim	-10.4487
▁driving	-10.4487
▁research	-10.4487
▁tatemono	-10.4488
time	-10.4497
▁reward	-10.4509
▁ana	-10.4514
▁complete	-10.4515
▁mercy	-10.4516
▁Onaji	-10.4516
▁15	-10.4525
▁board	-10.4526
▁manzoku	-10.4526
4	-10.4526
▁Huh	-10.4531
▁kousei	-10.4535
zou	-10.4538
▁Sekai	-10.4545
▁Hei	-10.4546
sshu	-10.455
▁buki	-10.4554
▁Fa	-10.4558
▁Walter	-10.4561
▁saremashita	-10.4573
▁kanjiru	-10.4573
▁notte	-10.4574
▁period	-10.4574
▁purpose	-10.4574
▁reberu	-10.4575
▁Looks	-10.4581
▁ex	-10.4591
▁Try	-10.4596
▁final	-10.4601
▁shitaku	-10.4606
isu	-10.4606
▁genba	-10.4618
▁furu	-10.4619
▁naikara	-10.4626
ct	-10.4629
▁kouen	-10.4629
▁kyaku	-10.4642
▁fly	-10.4642
▁Co	-10.4644
renai	-10.4651
▁korosareta	-10.4656
▁Over	-10.4656
▁omowanai	-10.4659
▁Actually	-10.4662
▁hungry	-10.4662
▁ochichisan	-10.4662
▁Jissai	-10.4677
▁Bye	-10.4683
▁sad	-10.4698
▁based	-10.4699
▁zannen	-10.4706
▁returned	-10.4709
▁kyoukai	-10.4712
▁shitagatte	-10.4714
▁gazou	-10.472
▁device	-10.4722
▁slow	-10.4729
▁teian	-10.4731
▁Back	-10.4738
▁Kane	-10.4738
▁agent	-10.4754
▁tsuyoku	-10.4755
▁irukara	-10.4757
▁several	-10.4766
▁White	-10.4766
▁Maji	-10.4767
▁teach	-10.4768
▁f	-10.4775
▁taste	-10.4787
▁forth	-10.4791
▁ikitai	-10.4793
No	-10.4794
▁sareteru	-10.4795
▁otagai	-10.4796
▁favorite	-10.4796
▁horse	-10.4797
▁witness	-10.4802
▁towards	-10.4807
▁Daddy	-10.4811
▁smoking	-10.4812
▁Many	-10.4813
ul	-10.4814
▁Think	-10.4816
by	-10.4817
▁older	-10.4823
▁cop	-10.4827
▁appreciate	-10.4828
usu	-10.4834
▁jun	-10.4834
▁shinakute	-10.4837
▁rin	-10.4839
▁sales	-10.484
▁whoever	-10.4846
rayuru	-10.4847
▁hassei	-10.4854
▁jugyou	-10.4856
▁opinion	-10.4858
seru	-10.4864
▁grow	-10.4866
way	-10.4866
▁shoujiki	-10.4871
▁blame	-10.4874
▁shoutai	-10.4874
▁mountain	-10.4875
▁naranakatta	-10.4876
▁heiki	-10.4878
▁More	-10.4878
▁map	-10.4879
▁green	-10.4885
▁Perhaps	-10.4887
aru	-10.4888
▁kanja	-10.4889
▁mochi	-10.4891
▁button	-10.4894
▁oke	-10.4898
▁shoes	-10.4899
▁akete	-10.4902
▁practice	-10.4907
▁Mate	-10.491
▁oka	-10.4911
ue	-10.4913
▁rekishi	-10.4916
▁Mattaku	-10.4916
▁Hell	-10.4916
▁sewa	-10.4924
▁shitaga	-10.4926
▁oshi	-10.493
▁Subarashii	-10.4931
hen	-10.4936
▁sagasu	-10.4947
fa	-10.4948
▁tate	-10.495
▁Otto	-10.4953
▁traffic	-10.4961
ketsu	-10.4961
▁United	-10.4962
▁wasurete	-10.4963
▁hearts	-10.4969
▁chijou	-10.4973
▁Iku	-10.4975
▁private	-10.4976
▁opushon	-10.4976
▁nozomi	-10.4978
▁ice	-10.498
▁kyoushi	-10.4981
▁Sumimasen	-10.4981
▁fool	-10.499
▁breakfast	-10.4991
▁tokuni	-10.4996
▁maku	-10.4998
▁Suu	-10.5
▁features	-10.5001
▁apartment	-10.5007
▁kowai	-10.5007
▁saizu	-10.5016
▁action	-10.5019
▁Besu	-10.502
▁radio	-10.5021
▁gogo	-10.5024
▁akuma	-10.5034
▁atari	-10.5038
▁Chou	-10.5042
▁lawyer	-10.5042
▁pan	-10.5051
▁loss	-10.5052
▁Ohayou	-10.5052
▁Asoko	-10.5053
▁kaeshimasu	-10.5055
▁starting	-10.5057
vo	-10.5063
dori	-10.5064
ranai	-10.5066
▁jikken	-10.5067
▁saidai	-10.5069
▁hidari	-10.5077
▁bomb	-10.5078
▁Joe	-10.5085
▁deki	-10.5087
▁utte	-10.5088
▁destroy	-10.5098
▁hataraku	-10.5098
▁jin	-10.5099
▁mitsuke	-10.5102
▁ryouhou	-10.5107
▁koroshi	-10.5111
▁itchi	-10.5112
▁walking	-10.5113
▁keimusho	-10.5113
▁innocent	-10.5114
▁pleasure	-10.5114
▁ikun	-10.5115
▁shousai	-10.5134
▁fan	-10.5134
▁hashi	-10.5146
▁judge	-10.5147
▁desukara	-10.5153
▁flight	-10.516
▁hikisuu	-10.516
▁yari	-10.5163
▁realize	-10.5165
▁network	-10.5167
one	-10.5169
ent	-10.5175
▁zenzen	-10.5176
▁naa	-10.5183
▁continue	-10.5187
▁mitsukete	-10.5191
rete	-10.5192
▁mienai	-10.5201
▁mune	-10.5202
▁spoke	-10.5205
▁Mark	-10.5207
▁Next	-10.5208
▁mawari	-10.521
▁shirabete	-10.5212
guchi	-10.5216
▁Bu	-10.5217
▁naritai	-10.5224
▁recognize	-10.5226
▁values	-10.5226
▁wine	-10.523
▁tennis	-10.5238
▁tanoshii	-10.5247
iro	-10.5252
▁shitsurei	-10.5253
▁naiga	-10.5268
▁Zutto	-10.527
▁surudarou	-10.527
▁yuki	-10.5281
▁States	-10.5289
▁Kodomotachi	-10.529
▁cup	-10.5291
▁fighting	-10.5295
▁easily	-10.53
▁Shuu	-10.5302
▁Gu	-10.5308
▁seishin	-10.5312
▁prefer	-10.5316
▁forgot	-10.5316
▁ficha	-10.5316
▁kaki	-10.532
▁kinyuu	-10.5324
▁argument	-10.5325
▁naito	-10.5325
▁nagaku	-10.5328
▁isogashii	-10.5334
sugi	-10.5342
▁Ani	-10.5344
▁chikyuu	-10.5347
▁touzen	-10.5348
▁hanbun	-10.5349
▁army	-10.5367
▁Asa	-10.5368
▁restaurant	-10.5379
▁eta	-10.5379
▁media	-10.5382
▁Le	-10.5383
▁Karu	-10.5386
▁partner	-10.539
ichi	-10.539
▁behavior	-10.5395
▁isoide	-10.5395
▁Tonikaku	-10.5395
▁ittan	-10.5396
▁main	-10.5397
▁Fine	-10.5398
▁Umaku	-10.5398
▁shizuka	-10.5399
▁nasareru	-10.5402
▁tan	-10.5403
▁saa	-10.5404
▁believers	-10.5404
▁jama	-10.5405
▁chiisai	-10.5416
▁buji	-10.5417
▁club	-10.5422
▁kinds	-10.5423
▁solve	-10.543
▁kosuto	-10.5438
gun	-10.5438
▁Rodo	-10.5452
▁Hitsuyou	-10.5458
▁master	-10.5463
▁yuushoku	-10.5474
▁Tomodachi	-10.5474
▁erabu	-10.5474
▁onkei	-10.5477
▁moon	-10.5478
hon	-10.5485
▁Y	-10.5488
ance	-10.549
▁empty	-10.549
▁Christmas	-10.549
ating	-10.5494
buri	-10.5495
▁tanjou	-10.5497
▁Mari	-10.5501
▁Ren	-10.5501
▁similar	-10.5502
▁hajimeru	-10.5506
▁nozomu	-10.5507
▁koufuku	-10.5508
▁bottom	-10.5511
▁environment	-10.5515
▁holding	-10.5519
▁50	-10.5522
▁mieta	-10.5526
▁nu	-10.5527
▁arimashita	-10.5529
yuu	-10.5529
gyou	-10.5533
▁general	-10.5535
atsu	-10.5543
▁naruto	-10.555
▁musa	-10.5551
▁chuu	-10.5551
▁Jimu	-10.5553
▁changes	-10.5556
▁Dore	-10.5558
rd	-10.5563
jitsu	-10.5564
▁Ike	-10.5572
▁tsukatta	-10.5574
▁mori	-10.5574
▁Isn	-10.5579
▁ukeru	-10.5586
▁Sometimes	-10.5587
▁corner	-10.5589
▁Henry	-10.5603
▁yobareru	-10.5605
▁blow	-10.5609
aku	-10.5612
fe	-10.5612
▁Bai	-10.5616
▁worship	-10.5619
▁beyond	-10.5619
▁Earth	-10.5619
▁ageta	-10.5623
▁Run	-10.5624
▁garden	-10.5633
▁forgive	-10.5634
▁Konnichiha	-10.5635
▁Joudan	-10.5636
▁di	-10.5636
▁likes	-10.5637
▁Alex	-10.5637
▁increase	-10.5637
▁oboeteru	-10.5638
zumi	-10.5646
▁desk	-10.5647
▁correct	-10.5648
▁listening	-10.5649
▁Futari	-10.5651
▁tomeru	-10.5653
▁enerugi	-10.5653
▁Jou	-10.5656
ish	-10.5659
▁gaman	-10.567
▁gou	-10.5672
▁escape	-10.5672
▁Deto	-10.5677
▁noise	-10.5678
▁ritsu	-10.5678
ari	-10.569
▁ti	-10.5691
komi	-10.5697
▁application	-10.5699
▁dying	-10.57
▁dansei	-10.5701
▁boushi	-10.5709
▁deliver	-10.5709
▁kougi	-10.5711
▁kikoeru	-10.5716
▁b	-10.5718
▁botan	-10.5719
▁shitagau	-10.5722
▁project	-10.5726
▁Onna	-10.5729
▁further	-10.5733
▁kekkou	-10.5733
gou	-10.5743
▁fukuzatsu	-10.5749
▁takaku	-10.5753
▁tei	-10.5758
▁tsuru	-10.5763
▁cops	-10.5763
um	-10.5764
▁blind	-10.5766
▁milk	-10.5766
▁ourselves	-10.5767
▁hinan	-10.5769
▁koroshite	-10.577
▁Heya	-10.5777
as	-10.578
▁Kata	-10.5781
ler	-10.5784
▁fusai	-10.5786
▁Cha	-10.5794
▁push	-10.5794
▁doui	-10.5796
▁aku	-10.5799
▁Gakkou	-10.5799
▁Honto	-10.5801
▁cry	-10.5804
▁shoku	-10.5806
▁aitsu	-10.5807
▁arrest	-10.5808
▁War	-10.5809
▁amazing	-10.5815
▁glass	-10.5817
ated	-10.5818
▁copy	-10.5824
▁subject	-10.5825
▁wonderful	-10.5827
▁played	-10.5834
▁yara	-10.5838
▁gold	-10.5839
▁destroyed	-10.5839
▁deeds	-10.5844
ueen	-10.5849
les	-10.5853
▁kaihou	-10.5854
▁koushou	-10.5856
nto	-10.5858
▁fujin	-10.5859
▁iwanai	-10.5877
▁hiku	-10.5881
▁chokusetsu	-10.5882
▁sanshou	-10.5886
▁gurupu	-10.5892
▁ring	-10.5892
▁tagai	-10.5893
▁saku	-10.5893
▁stock	-10.5898
▁Before	-10.5898
▁buddy	-10.5898
▁surprise	-10.5903
▁stayed	-10.591
▁bosu	-10.5914
▁kenri	-10.5914
▁renchuu	-10.5916
▁lies	-10.5918
▁Son	-10.5924
are	-10.5928
▁distance	-10.5931
▁Junbi	-10.5932
▁hikari	-10.594
▁sleeping	-10.5943
▁immediately	-10.5949
▁social	-10.595
▁functions	-10.595
▁shounin	-10.5953
▁page	-10.5956
▁Use	-10.5959
ner	-10.5965
▁option	-10.597
▁Koi	-10.5973
▁honey	-10.5975
▁Kesa	-10.598
▁Wakarimashita	-10.5982
▁Sakuya	-10.5982
▁sold	-10.5985
tchi	-10.5985
led	-10.5986
▁ataete	-10.5991
▁shinjinai	-10.5998
▁ohahasan	-10.5999
▁twice	-10.5999
▁suspect	-10.6011
▁planet	-10.6017
▁tenshi	-10.6018
▁source	-10.6021
▁Con	-10.6022
▁sui	-10.6025
▁dance	-10.6028
▁prove	-10.6029
ori	-10.6029
▁nakunatta	-10.6032
▁sugoku	-10.6033
▁hoshou	-10.6051
▁Tsuma	-10.6051
▁conversation	-10.6052
▁guilty	-10.6053
▁direction	-10.6054
▁putting	-10.6056
▁honor	-10.6062
▁ju	-10.6063
▁toushi	-10.6063
▁Michael	-10.6066
▁sara	-10.6067
▁Today	-10.6068
▁iwareta	-10.6074
▁self	-10.6078
▁expected	-10.6078
▁totsuzen	-10.6083
ny	-10.6085
nyuu	-10.6086
▁nyusu	-10.6088
▁speed	-10.6095
▁Kekkon	-10.61
▁Ryoukai	-10.6101
▁ikeru	-10.6103
▁marude	-10.6103
▁element	-10.6103
▁sing	-10.6105
▁fugi	-10.6106
▁iranai	-10.6113
▁simply	-10.6117
▁Nick	-10.6118
konda	-10.6119
▁Jin	-10.6121
▁provide	-10.6127
▁omoto	-10.614
ritsu	-10.6142
▁location	-10.6142
▁okuru	-10.6145
▁kibou	-10.6149
dasu	-10.6149
▁warm	-10.615
out	-10.6153
▁kakatte	-10.6154
▁locked	-10.6158
eta	-10.6159
▁Yatta	-10.6159
▁Pati	-10.6162
▁Hen	-10.6166
▁naki	-10.6167
▁City	-10.6171
▁Sunday	-10.6173
▁eranda	-10.6174
▁plans	-10.6174
▁lower	-10.6176
qui	-10.6176
▁method	-10.6177
rikata	-10.618
▁oya	-10.6193
▁lab	-10.6194
▁kega	-10.6198
▁0	-10.62
▁gu	-10.6201
▁Anything	-10.6203
▁center	-10.6204
▁Masaka	-10.6204
▁girlfriend	-10.6205
▁chiryou	-10.6209
▁kosu	-10.6209
▁fail	-10.621
nen	-10.6214
mae	-10.6216
ver	-10.622
▁kyasshu	-10.6222
▁kanryou	-10.6223
▁maji	-10.6224
▁connection	-10.6225
▁suuji	-10.6226
▁hanarete	-10.6234
▁gift	-10.6235
▁kakawarazu	-10.6237
▁shukudai	-10.6237
ndo	-10.6238
▁wagon	-10.6239
▁jiki	-10.6242
▁hogo	-10.6244
ING	-10.6245
▁attara	-10.6247
▁Dete	-10.6248
▁Tori	-10.6251
▁oh	-10.6254
▁duty	-10.6254
ant	-10.6256
▁rate	-10.6256
▁Paris	-10.6257
▁willing	-10.6271
▁Kyoto	-10.6273
▁Hannin	-10.6274
▁narudarou	-10.6278
▁dousa	-10.6279
▁kitara	-10.6286
▁warera	-10.6287
▁medicine	-10.6289
▁tough	-10.6294
▁extra	-10.6296
ringu	-10.6299
▁Kyuu	-10.6299
▁owe	-10.6303
▁major	-10.6305
▁naiyou	-10.6307
▁marketing	-10.6307
▁raku	-10.6308
iri	-10.631
▁asleep	-10.6312
▁oshie	-10.6316
▁Shita	-10.6316
▁Tanomu	-10.6321
▁osoku	-10.6332
▁Inu	-10.6333
▁motomete	-10.6337
▁Mei	-10.6339
▁wasureta	-10.634
▁rou	-10.6342
▁choudai	-10.6342
▁hyougen	-10.6342
▁Pari	-10.6343
▁taiou	-10.6344
▁cars	-10.6345
▁hairi	-10.6349
▁bridge	-10.6361
▁studying	-10.6364
▁yoko	-10.6365
▁ikaga	-10.6373
▁genjitsu	-10.6376
▁butai	-10.6382
▁ninshiki	-10.6384
▁storm	-10.6384
▁greater	-10.6387
zan	-10.6388
▁taught	-10.6393
▁battle	-10.6393
▁sokudo	-10.6394
▁Vi	-10.6397
▁cake	-10.6401
▁Nara	-10.6408
▁science	-10.6411
▁property	-10.6411
▁aka	-10.6414
byou	-10.6415
sareru	-10.6421
▁tooku	-10.6422
▁thinks	-10.6437
▁kitte	-10.644
▁nattara	-10.644
▁tsukaeru	-10.6441
▁Genzai	-10.6446
▁operation	-10.6449
id	-10.6452
▁kondo	-10.6458
V	-10.6461
▁fukanou	-10.6463
toku	-10.6466
▁character	-10.6471
▁relationship	-10.6472
line	-10.6474
▁taiyou	-10.6475
land	-10.6476
▁ukete	-10.6483
▁wedding	-10.6486
▁exchange	-10.6486
▁Find	-10.6492
teta	-10.6493
▁yukkuri	-10.6499
nari	-10.65
▁race	-10.6501
▁mess	-10.6506
▁manabu	-10.651
▁shikkari	-10.6519
▁chiiki	-10.652
▁kuro	-10.6521
▁sagashi	-10.6528
▁saru	-10.6533
▁Osoraku	-10.6534
▁lines	-10.6539
▁mirai	-10.6539
buru	-10.6542
sanai	-10.6545
▁owaru	-10.6547
▁koujou	-10.6548
▁General	-10.6548
▁asset	-10.655
▁ron	-10.6552
▁motomeru	-10.6552
▁Didn	-10.6556
▁Muri	-10.656
▁sugita	-10.6561
▁Messenger	-10.6562
suru	-10.6562
▁9	-10.6564
▁kisu	-10.6565
▁uwasa	-10.6571
▁Genki	-10.6571
ard	-10.6573
ze	-10.6576
▁caused	-10.6577
all	-10.658
tsuke	-10.6581
▁keizai	-10.6582
▁church	-10.6587
▁obujekuto	-10.6588
▁kizuita	-10.6588
▁bigger	-10.6589
▁specific	-10.6594
▁staying	-10.6595
▁zou	-10.6595
▁kunren	-10.6595
bai	-10.6599
▁ura	-10.6601
▁hannou	-10.6606
▁Bring	-10.6614
▁joke	-10.6616
ria	-10.6618
▁Musume	-10.662
lt	-10.6621
▁Hidoi	-10.6623
▁sakana	-10.6624
▁winter	-10.6624
▁weapons	-10.6626
▁sub	-10.6628
▁Too	-10.663
▁skin	-10.6632
▁trees	-10.6639
▁gentlemen	-10.6641
▁tabemono	-10.6642
▁hearing	-10.6646
▁results	-10.6646
▁Zu	-10.6647
▁iitai	-10.6651
▁Grace	-10.6659
▁fresh	-10.6659
▁shimatte	-10.6661
▁kushi	-10.6666
yasui	-10.6669
▁drinking	-10.6673
▁kaiwa	-10.6675
▁responsible	-10.6677
▁fat	-10.6677
▁shougen	-10.6679
▁leaves	-10.6692
▁condition	-10.6694
▁task	-10.6697
▁coat	-10.6699
iru	-10.67
▁Christ	-10.6701
▁kidou	-10.6702
▁tekiyou	-10.6705
▁kyouju	-10.671
hai	-10.6713
▁Boston	-10.6713
▁torakku	-10.6717
▁keeping	-10.6718
▁hoshi	-10.6722
▁tsuketa	-10.6726
▁Yatte	-10.6732
▁saishuu	-10.6734
▁remain	-10.6739
▁belong	-10.6743
▁modotta	-10.6744
▁kimitachi	-10.6747
▁sansei	-10.6756
▁animals	-10.6759
ol	-10.6759
▁umai	-10.676
▁quit	-10.6761
▁pulled	-10.6762
▁apart	-10.6764
▁nyuyoku	-10.6769
▁shime	-10.677
▁gisei	-10.678
▁ideas	-10.6785
▁mura	-10.6789
▁Kei	-10.679
▁draw	-10.6795
▁Sui	-10.6796
▁loves	-10.68
▁tsutaete	-10.6803
▁village	-10.6804
▁abroad	-10.6804
▁knife	-10.6804
▁seimei	-10.6809
▁pi	-10.681
▁reached	-10.6814
▁teishi	-10.6817
cho	-10.6823
▁umareta	-10.683
▁Moses	-10.6832
▁harm	-10.6836
▁familiar	-10.684
▁tekisuto	-10.6842
clock	-10.6845
▁tenisu	-10.6848
▁nareru	-10.6852
▁allowed	-10.6853
▁beddo	-10.6853
He	-10.6858
▁Somebody	-10.6859
▁nanimono	-10.686
▁tazuneta	-10.686
▁flowers	-10.6861
iku	-10.6863
▁shousetsu	-10.6865
▁pro	-10.6866
masendeshita	-10.6877
▁jan	-10.6877
▁jaa	-10.688
▁nodo	-10.688
▁Sumanai	-10.688
▁However	-10.6881
▁remind	-10.6882
▁sute	-10.6882
▁konnan	-10.6882
▁okutta	-10.6889
▁kyori	-10.6898
▁shuchou	-10.6899
▁kabu	-10.6899
mari	-10.6903
▁form	-10.6904
ley	-10.6904
▁kanren	-10.6905
▁double	-10.6909
▁spot	-10.6911
▁Shiranai	-10.6913
▁rippa	-10.6915
▁jigyou	-10.6916
▁totally	-10.6918
▁heikin	-10.6922
▁powerful	-10.6926
▁supa	-10.6927
gate	-10.6931
ized	-10.6931
▁opened	-10.6934
▁zaisan	-10.6935
▁Tokoro	-10.6935
▁nomu	-10.6938
▁akusesu	-10.6944
▁yen	-10.6947
▁Wakaru	-10.6947
▁arukara	-10.6948
▁renshuu	-10.6951
▁followed	-10.6953
▁Eigo	-10.6954
▁brothers	-10.6955
▁koitsu	-10.6955
▁driver	-10.6955
bin	-10.6958
▁expensive	-10.6969
▁definitely	-10.697
▁kensa	-10.6971
▁atae	-10.6974
▁Us	-10.6978
ashi	-10.6981
der	-10.6982
▁David	-10.6989
▁press	-10.6993
▁iron	-10.6995
▁kaiten	-10.6997
uchi	-10.6998
rukara	-10.7002
▁Bob	-10.7005
▁trial	-10.7007
▁Amerikanin	-10.7013
▁yuuto	-10.7014
▁tsukuri	-10.7024
▁admit	-10.7025
▁keiyaku	-10.7025
▁tsuiseki	-10.7025
▁goran	-10.7025
▁shitta	-10.703
▁shimesu	-10.7034
00	-10.7046
▁shinbun	-10.7047
▁lay	-10.7048
▁katachi	-10.705
ger	-10.7053
▁lock	-10.7057
▁finding	-10.7057
▁Kosu	-10.7061
▁Z	-10.7061
▁murdered	-10.7062
nd	-10.7062
▁stuck	-10.7062
▁Charlie	-10.7062
▁Bosuton	-10.7063
▁okure	-10.7063
▁nonde	-10.7066
▁guard	-10.7071
▁succeed	-10.7074
▁magic	-10.7081
▁court	-10.7081
▁mistakes	-10.7081
▁kanpeki	-10.7081
▁yorokonde	-10.7081
matsu	-10.7082
▁bakudan	-10.7084
atari	-10.7085
▁output	-10.7086
▁shikou	-10.7092
ize	-10.7099
▁helping	-10.71
▁omoni	-10.7101
▁ittara	-10.7116
▁dis	-10.7119
▁Che	-10.712
▁gemu	-10.7129
que	-10.713
▁peji	-10.7132
▁senryaku	-10.7138
▁Alright	-10.7138
▁mukae	-10.7138
▁treat	-10.7141
▁shitteta	-10.7143
▁version	-10.7144
▁Chichisan	-10.7148
ring	-10.7149
▁anna	-10.7149
▁natural	-10.7153
▁truly	-10.7156
ally	-10.7159
▁fushinjin	-10.7159
▁ikimashou	-10.716
▁Zenin	-10.7163
▁Big	-10.7167
nji	-10.7167
▁mashi	-10.7169
▁Nikku	-10.7174
▁kekkyoku	-10.7175
▁Black	-10.7175
▁checked	-10.7182
tenai	-10.7189
▁Zettai	-10.7194
▁Men	-10.7194
▁dropped	-10.7194
sarete	-10.7201
▁gotten	-10.7203
▁pin	-10.7206
▁operating	-10.7213
▁beer	-10.7213
▁base	-10.7216
▁ninmu	-10.7216
▁jump	-10.7217
▁shinji	-10.7219
▁email	-10.7219
▁settoku	-10.7222
▁Kuru	-10.7224
▁sat	-10.7232
▁library	-10.7232
▁bakuhatsu	-10.7233
▁effect	-10.7235
▁medical	-10.7236
▁client	-10.7237
▁keys	-10.725
▁jouken	-10.7254
▁moraitai	-10.7254
▁teido	-10.7258
▁Tsuki	-10.7258
▁direct	-10.7265
▁gaku	-10.7269
▁nichiyou	-10.727
▁Jinsei	-10.7273
▁natsu	-10.7275
mb	-10.7276
▁choushi	-10.7282
▁picked	-10.7289
▁feels	-10.7289
▁recently	-10.7291
▁Another	-10.7291
▁tango	-10.7292
▁leg	-10.7295
▁mizukara	-10.7299
▁burn	-10.7302
▁niku	-10.7303
▁firm	-10.7307
▁puro	-10.7308
▁opportunity	-10.7309
▁jisho	-10.7313
▁steal	-10.7319
▁marry	-10.732
▁bird	-10.732
▁Kurisu	-10.7324
▁yameta	-10.7326
▁hokori	-10.7328
hyou	-10.733
▁Furanku	-10.7331
▁yourselves	-10.7332
▁Mori	-10.7332
▁total	-10.7333
▁mendou	-10.7334
▁keeps	-10.7334
▁matteru	-10.7337
▁enjo	-10.7337
▁nine	-10.7345
▁Saikou	-10.735
con	-10.7355
▁waste	-10.7356
▁meat	-10.7357
▁faster	-10.7358
ben	-10.736
▁foreign	-10.7362
▁kuremasen	-10.7365
▁joudan	-10.7368
▁orders	-10.7368
fuku	-10.7373
▁sura	-10.7373
▁hiding	-10.7374
▁Oku	-10.7376
▁feelings	-10.7377
▁serve	-10.738
▁bother	-10.7382
▁Ruru	-10.7383
▁higher	-10.7383
zaru	-10.7384
▁shiharai	-10.7384
▁financial	-10.7386
▁koukan	-10.7401
▁apply	-10.7413
▁Kite	-10.7413
ete	-10.7419
▁tochuu	-10.742
▁basic	-10.7424
▁Hurry	-10.7424
▁tanjun	-10.7425
ding	-10.7425
▁Konkai	-10.7427
▁kakuritsu	-10.7427
▁Pan	-10.7427
▁iwa	-10.7428
▁random	-10.7432
▁excuse	-10.7435
tter	-10.7438
▁asoko	-10.7438
▁drunk	-10.744
yoku	-10.7442
▁perhaps	-10.7444
▁gense	-10.7446
▁Soitsu	-10.7448
▁Gen	-10.7448
maru	-10.7449
▁St	-10.7453
▁kisoku	-10.746
▁Still	-10.7463
▁pictures	-10.7463
▁weak	-10.7466
▁hidoku	-10.7468
▁Za	-10.7479
▁planning	-10.7484
▁iroiro	-10.7484
▁stole	-10.7485
▁wakarimasen	-10.7488
▁crying	-10.7493
▁okashii	-10.7499
▁hiraku	-10.7503
▁akachan	-10.7503
▁jitensha	-10.7504
▁revealed	-10.7506
▁mane	-10.7508
▁kimeta	-10.7512
▁Sit	-10.7519
▁shougai	-10.7521
komu	-10.7522
▁worst	-10.7524
▁deny	-10.7526
▁boyfriend	-10.7527
▁belongs	-10.7528
▁tall	-10.7536
▁cancer	-10.7542
▁James	-10.7542
▁shunkan	-10.7542
▁accounts	-10.755
q	-10.7555
▁guide	-10.7555
▁nokotte	-10.7556
▁shikin	-10.756
▁huge	-10.7563
▁Kohi	-10.7565
▁Maiku	-10.7571
▁Daitouryou	-10.7581
▁shibaraku	-10.7581
▁chanto	-10.7581
▁eigyou	-10.7581
▁kanemochi	-10.7582
ryuu	-10.7582
▁Fuku	-10.7582
if	-10.7582
▁Out	-10.7587
oki	-10.7592
▁sukuu	-10.7598
▁Shitteru	-10.7601
▁hairetsu	-10.7602
▁taizai	-10.7603
keredo	-10.7608
▁bokura	-10.7613
▁hole	-10.7617
▁Moto	-10.7619
▁spring	-10.762
▁hidden	-10.762
▁Ochichisan	-10.762
▁detective	-10.7621
▁kensaku	-10.7626
▁online	-10.7632
▁kuse	-10.7634
gara	-10.7636
▁Suteki	-10.7637
▁kona	-10.7638
▁seemed	-10.7638
▁tend	-10.7639
▁ugoku	-10.764
▁Master	-10.7642
▁Basu	-10.7643
▁Poru	-10.7643
▁michibiki	-10.7645
▁theory	-10.7649
▁Aishiteru	-10.765
▁House	-10.7652
▁Kokoro	-10.7655
▁examination	-10.766
▁Beikoku	-10.766
▁hanbai	-10.7661
▁jidou	-10.7663
▁nete	-10.7663
▁raised	-10.7663
ad	-10.7669
▁trick	-10.7669
▁saba	-10.7683
▁shuuryou	-10.7683
▁mashin	-10.7685
▁shows	-10.769
▁figured	-10.7698
▁seiki	-10.7698
▁auto	-10.7699
▁iruga	-10.7704
▁higaisha	-10.7704
▁d	-10.7707
▁ticket	-10.7707
▁shape	-10.7708
▁Chris	-10.7712
▁Hana	-10.7718
▁equals	-10.7718
▁narudeshou	-10.7719
▁baseball	-10.772
▁star	-10.7721
▁kaifuku	-10.7722
▁kiji	-10.7725
▁Hu	-10.773
▁tokui	-10.7731
▁closer	-10.7731
▁stood	-10.774
▁tatakau	-10.7744
▁honmono	-10.7745
▁yamero	-10.7745
▁mairu	-10.7747
▁super	-10.7749
▁Bou	-10.7752
▁harau	-10.7755
▁meaning	-10.7758
▁saiaku	-10.7761
▁naikedo	-10.7772
▁kiru	-10.7774
▁rock	-10.7777
▁kike	-10.7778
ier	-10.7779
▁dictionary	-10.778
▁original	-10.778
▁ability	-10.7792
▁signal	-10.7793
▁zutsu	-10.78
▁heiwa	-10.7803
▁gimu	-10.7804
▁Bokura	-10.7807
geki	-10.7808
▁shini	-10.7811
▁hath	-10.7822
▁dude	-10.7823
▁ei	-10.7829
▁Surely	-10.7832
ER	-10.7832
▁okiru	-10.7834
▁shimo	-10.7834
▁Yaku	-10.7836
▁Ca	-10.7837
▁doresu	-10.7848
enai	-10.7852
ble	-10.7853
▁yuuki	-10.7853
razu	-10.7854
▁easier	-10.786
▁jissou	-10.7861
▁Ti	-10.7864
▁square	-10.7869
she	-10.7869
▁mentioned	-10.787
▁Izen	-10.7873
▁hari	-10.7876
▁tabeta	-10.7876
▁details	-10.7877
▁otte	-10.7879
▁hone	-10.7879
▁advantage	-10.7881
▁Okane	-10.7882
▁shitemasu	-10.7885
▁cute	-10.7888
▁kakatta	-10.7897
▁kanjita	-10.79
▁oyurushi	-10.7901
▁chair	-10.7903
▁Kao	-10.7907
▁oji	-10.7907
▁Kita	-10.7907
bura	-10.7909
▁covered	-10.7917
che	-10.7923
kkiri	-10.7924
▁types	-10.7924
▁liked	-10.7932
▁nusunda	-10.7942
▁cook	-10.7946
▁German	-10.7949
▁hiru	-10.7955
▁kotaete	-10.7961
▁investigation	-10.7962
▁weekend	-10.7963
▁Pita	-10.7966
▁tehon	-10.7968
▁sanpo	-10.797
▁hardly	-10.7971
▁teburu	-10.7972
▁exist	-10.7979
red	-10.7987
hara	-10.7994
▁nokori	-10.7998
▁popular	-10.8003
▁futatabi	-10.8003
▁hyoujun	-10.8004
▁satsugai	-10.8004
▁trade	-10.8007
▁shuuri	-10.8012
▁Doru	-10.8021
▁idiot	-10.8024
▁ikeba	-10.8025
▁wakaranakatta	-10.8027
▁user	-10.8027
▁Bin	-10.803
▁kumo	-10.8038
▁uchuu	-10.8049
▁shuuchuu	-10.8054
▁supai	-10.806
▁ought	-10.8074
▁assume	-10.8074
▁sex	-10.8079
▁Paul	-10.808
▁shihai	-10.8089
▁sugureta	-10.8091
▁beach	-10.8094
J	-10.8104
▁guuzen	-10.8107
▁crew	-10.8108
▁Keikan	-10.8108
▁suddenly	-10.8109
▁tama	-10.8114
▁tsukarete	-10.8117
▁ieru	-10.8118
▁unit	-10.8124
▁Naa	-10.8128
▁shudan	-10.813
▁Car	-10.8131
▁sain	-10.8136
▁souji	-10.8138
Yeah	-10.8139
▁proof	-10.8139
▁Je	-10.814
▁drug	-10.8141
▁manager	-10.8143
▁rid	-10.8143
▁stolen	-10.8146
▁George	-10.8148
▁gozonji	-10.8148
▁Maikeru	-10.8148
▁obey	-10.8149
▁unmei	-10.8153
▁bunch	-10.8163
):	-10.8165
▁juusho	-10.8166
▁tanin	-10.817
▁officer	-10.8172
▁Amari	-10.8181
▁expense	-10.8183
▁pasu	-10.8187
eki	-10.8192
▁Doctor	-10.8192
▁densha	-10.8193
▁section	-10.8193
rk	-10.8199
▁Hiro	-10.8199
▁angels	-10.82
▁Kari	-10.8202
▁kawaru	-10.8205
▁hiyou	-10.8208
▁pieces	-10.8211
▁Modo	-10.8213
▁Carrie	-10.8213
▁iwanakatta	-10.8215
▁concerned	-10.8216
▁van	-10.8218
kyo	-10.8222
▁kenka	-10.8224
▁Jiko	-10.8227
▁goddamn	-10.8232
▁technology	-10.8232
▁monogatari	-10.8232
▁onto	-10.8235
▁tanni	-10.8236
▁Ue	-10.8245
▁strength	-10.8247
▁okusan	-10.8249
▁moratte	-10.8251
▁Shizuk	-10.8252
▁China	-10.8253
▁receive	-10.8253
▁Such	-10.8263
▁taido	-10.8267
▁miteru	-10.8273
dy	-10.8274
▁entry	-10.8281
▁shisetsu	-10.8286
▁mail	-10.8287
▁Shitsumon	-10.8296
▁heat	-10.8297
▁iun	-10.8301
▁bill	-10.8302
▁warning	-10.8302
retsu	-10.8304
rasu	-10.8306
▁Bobu	-10.8312
▁Ashi	-10.8313
▁seek	-10.8313
▁komando	-10.8317
▁hajimaru	-10.8317
▁countries	-10.8317
▁Sarani	-10.8319
▁zenkou	-10.8319
▁default	-10.832
▁apologize	-10.8326
▁ended	-10.8331
▁avoid	-10.8333
▁movies	-10.8334
▁shinnyuu	-10.8335
▁masani	-10.8338
▁bodies	-10.8338
▁sagyou	-10.8339
▁Mukou	-10.834
▁ishiki	-10.8341
▁knowing	-10.8344
▁harder	-10.8345
▁Yoru	-10.8347
▁damage	-10.8347
▁suugaku	-10.8349
ence	-10.8353
▁package	-10.8355
▁Dochira	-10.8359
▁Oliver	-10.836
▁kinshi	-10.836
▁shusseki	-10.836
▁hoping	-10.8361
▁shutoku	-10.8362
▁Maru	-10.8364
▁Set	-10.8372
mochi	-10.8373
▁Sorya	-10.8384
▁Ei	-10.8395
▁aidea	-10.8402
▁mimashita	-10.8405
▁iimashita	-10.8405
▁discuss	-10.8406
▁nozonde	-10.8407
▁ikari	-10.8411
▁telephone	-10.8411
▁Fune	-10.8414
shutsu	-10.8417
▁breath	-10.8423
▁plot	-10.8426
▁kura	-10.8426
▁shouri	-10.8429
▁justice	-10.8431
naito	-10.844
▁hanase	-10.8442
▁usual	-10.8445
▁guidance	-10.8445
▁gaishutsu	-10.8445
▁gimon	-10.8446
▁tsukero	-10.8458
cy	-10.8461
▁Akuma	-10.8464
▁feed	-10.8465
▁vacation	-10.8466
▁positive	-10.8466
▁jisatsu	-10.8469
▁Oruta	-10.8473
▁None	-10.8478
shii	-10.8479
▁North	-10.8489
▁arrive	-10.8494
▁Had	-10.8494
▁clearly	-10.8505
▁site	-10.8506
▁Roshia	-10.8508
meru	-10.8509
▁losing	-10.8509
▁nature	-10.8513
▁array	-10.8518
▁moraeru	-10.8524
▁places	-10.8524
▁masu	-10.8526
▁wasureru	-10.8527
▁Sarah	-10.8528
▁performance	-10.8531
▁shuueki	-10.8532
▁sakusen	-10.8533
▁understanding	-10.8536
nce	-10.8539
▁laugh	-10.8539
▁Hitotsu	-10.8542
▁points	-10.8547
▁shibou	-10.8548
▁plus	-10.8553
▁airport	-10.8553
▁absolutely	-10.8554
▁setting	-10.8555
▁n	-10.8561
▁assets	-10.8562
ame	-10.8565
shiku	-10.8572
▁issue	-10.8573
▁ushinau	-10.8574
▁Both	-10.8577
▁osoi	-10.8581
▁gyaku	-10.8585
ee	-10.8595
▁progress	-10.8596
▁Toni	-10.86
▁tsuzuketa	-10.8604
ah	-10.8606
▁nigeta	-10.8617
▁Osaka	-10.8618
▁capital	-10.8619
▁rakuen	-10.862
▁Henri	-10.8622
▁kentou	-10.8625
▁Hikou	-10.8627
hmm	-10.864
▁Hanashite	-10.8646
▁isu	-10.8648
▁Anatatachi	-10.8648
ping	-10.8655
▁clock	-10.8658
ship	-10.866
▁failure	-10.8662
▁kakari	-10.8663
▁goku	-10.8664
▁houshou	-10.8664
▁false	-10.8664
▁l	-10.8664
fuu	-10.8674
▁Kate	-10.8676
▁shizen	-10.8678
▁grew	-10.8684
▁heaven	-10.8684
▁kanshin	-10.8685
▁ane	-10.8685
▁ketsu	-10.87
▁tight	-10.8701
Yes	-10.8702
nan	-10.8705
▁Tu	-10.8706
▁negative	-10.8706
▁odoroita	-10.8706
▁verily	-10.8706
▁Oto	-10.8706
▁remove	-10.8707
▁daiichi	-10.8707
▁ienai	-10.8712
▁zouka	-10.8715
▁records	-10.8718
ps	-10.8719
beru	-10.872
▁tanonda	-10.8728
▁Anyway	-10.8729
▁Misaki	-10.8729
▁Desukara	-10.873
▁Nagai	-10.8734
▁below	-10.8737
▁Chinese	-10.875
▁mokuhyou	-10.875
▁taiken	-10.8755
▁itami	-10.8757
▁Up	-10.8764
▁kouryo	-10.8765
▁nori	-10.8765
▁kitchen	-10.8772
▁parameters	-10.8773
ido	-10.8774
▁ears	-10.8776
▁lesson	-10.8779
▁oshieru	-10.878
▁vi	-10.8781
▁Holy	-10.8782
moku	-10.8783
▁Shinda	-10.8787
▁nao	-10.8789
▁tenki	-10.8792
▁fusoku	-10.8796
▁11	-10.8798
domo	-10.8798
▁neck	-10.88
▁kyouiku	-10.8801
▁Max	-10.8801
▁secure	-10.8804
▁hanaseru	-10.8812
▁nage	-10.8814
▁afford	-10.8817
▁wazuka	-10.8818
▁Choudo	-10.882
▁bunpu	-10.8823
old	-10.8827
▁kyoufu	-10.8832
▁40	-10.8833
▁yame	-10.8833
▁aitai	-10.8833
▁lied	-10.8834
▁High	-10.884
▁shinpan	-10.8841
▁m	-10.8848
▁Stand	-10.8848
▁sezu	-10.885
▁Adam	-10.8861
▁bottle	-10.8863
▁uri	-10.8865
saki	-10.8866
▁prepared	-10.8869
▁hadn	-10.8877
takatta	-10.8885
▁konkai	-10.8887
▁douro	-10.8891
And	-10.8893
▁shuusei	-10.8895
▁stage	-10.8896
▁soba	-10.8899
▁heading	-10.8904
▁flat	-10.8905
▁yasashii	-10.8906
▁roof	-10.8907
▁thy	-10.8908
▁Isha	-10.8909
▁ikiteru	-10.8913
▁Michi	-10.8916
▁kesu	-10.8916
▁douji	-10.8918
▁watched	-10.8919
ow	-10.8926
▁threat	-10.893
▁otokonoko	-10.893
bashiba	-10.8931
▁kurabu	-10.8935
▁seriously	-10.8937
▁lots	-10.8939
end	-10.8943
▁wealth	-10.8948
atte	-10.8948
▁Zannen	-10.8951
ph	-10.8951
▁pure	-10.8952
▁tadashiku	-10.8958
nee	-10.8959
wan	-10.8963
▁bound	-10.8965
risu	-10.8966
▁mark	-10.8967
▁visited	-10.8967
▁split	-10.8973
▁kashikata	-10.8975
▁slowly	-10.8979
▁oai	-10.8981
▁la	-10.8982
▁smile	-10.8985
pon	-10.8992
▁everywhere	-10.8997
▁stone	-10.8999
▁sainou	-10.8999
▁loose	-10.9009
▁sugar	-10.9018
▁Washi	-10.902
▁roujin	-10.902
▁Fun	-10.9022
▁Whil	-10.9024
▁Damare	-10.9027
▁ofisu	-10.9028
▁nannin	-10.9029
je	-10.9044
▁mahou	-10.9048
▁hall	-10.905
▁pe	-10.9053
▁Ok	-10.9056
▁kikitai	-10.9057
▁spread	-10.9059
▁detail	-10.906
▁matters	-10.9063
▁Fuji	-10.9066
▁Zenkai	-10.9067
▁Hang	-10.9071
▁ochita	-10.9071
▁design	-10.9074
amu	-10.9079
▁measure	-10.9081
▁atsukai	-10.9081
▁speaks	-10.9083
▁realized	-10.9085
Do	-10.9086
▁wondering	-10.9088
▁jinkou	-10.909
▁koku	-10.909
▁lovely	-10.9094
▁Tony	-10.9095
▁ensou	-10.9096
▁server	-10.9096
▁leader	-10.9101
▁attan	-10.9104
ngu	-10.9106
▁nyu	-10.9113
▁kimeru	-10.9115
▁hani	-10.9123
▁naidaro	-10.9126
▁maru	-10.9128
▁kangaeteru	-10.9128
▁selling	-10.9128
▁buka	-10.9129
▁contract	-10.9133
▁event	-10.9141
▁seisan	-10.9144
▁tsukae	-10.9148
▁dreams	-10.915
▁vote	-10.9151
▁kiteru	-10.9154
▁shorui	-10.9157
▁kesa	-10.9158
▁iwarete	-10.9163
▁Chuui	-10.9163
▁appears	-10.9167
iya	-10.9168
▁resutoran	-10.918
▁stories	-10.918
▁Taihen	-10.9181
▁futte	-10.9181
▁konran	-10.9181
▁therein	-10.9181
▁tsukanai	-10.9183
▁Shinkou	-10.9183
▁kakarete	-10.9187
▁Guys	-10.9188
▁yakyuu	-10.9189
▁woods	-10.9192
▁led	-10.9193
▁Pro	-10.9196
▁cases	-10.9198
▁arms	-10.9199
▁tsutome	-10.92
▁drugs	-10.9211
▁Kuchi	-10.9212
▁oba	-10.9222
▁tsuno	-10.9223
▁Marude	-10.9224
▁sword	-10.9226
▁yosou	-10.9232
▁Maku	-10.9233
▁tani	-10.9235
▁naraba	-10.9236
koro	-10.9236
▁considered	-10.9238
ey	-10.9239
▁entered	-10.9239
▁kieta	-10.9248
▁falling	-10.9249
▁Ryoushin	-10.925
▁boto	-10.925
▁alarm	-10.925
▁reihai	-10.9251
▁kouun	-10.9255
▁toward	-10.9256
▁Prophet	-10.9256
▁tochi	-10.926
▁Ju	-10.9261
▁tsutaeru	-10.9263
▁scale	-10.9265
tsuu	-10.9269
▁Kokyaku	-10.9273
ex	-10.9274
▁nation	-10.9276
nk	-10.9279
▁soudan	-10.928
▁lo	-10.9288
This	-10.9292
roi	-10.9295
▁shirt	-10.9295
▁complicated	-10.9297
▁kuremasu	-10.9297
▁tsuujou	-10.9297
▁shusshin	-10.9299
▁criminal	-10.9304
▁feature	-10.9304
▁Aruman	-10.9305
▁kigen	-10.9306
▁survive	-10.9308
▁okashita	-10.9309
▁kikou	-10.9311
▁pleased	-10.9312
shon	-10.9312
▁chuukoku	-10.932
▁korosareru	-10.9321
▁population	-10.9322
doku	-10.9324
▁range	-10.9324
▁naifu	-10.9327
▁fruit	-10.9332
▁Kura	-10.9336
▁nige	-10.934
▁kurikku	-10.9344
▁usotsuki	-10.9345
▁row	-10.9345
▁safety	-10.9345
▁sum	-10.9346
▁Five	-10.9351
▁oide	-10.9356
▁marriage	-10.9367
▁tegakari	-10.9367
▁selected	-10.9373
▁bringing	-10.9378
▁answers	-10.9381
▁elements	-10.9385
▁kke	-10.9387
▁sentence	-10.9389
▁average	-10.939
▁bicycle	-10.939
▁Ready	-10.9392
▁returns	-10.9397
▁kakusu	-10.9398
▁Josei	-10.9398
▁osorete	-10.9401
▁Mado	-10.9401
▁ordered	-10.9407
▁Deta	-10.9408
▁dogs	-10.9417
▁greatest	-10.942
▁dato	-10.942
▁oil	-10.9422
▁Kya	-10.9425
off	-10.9433
▁akanbou	-10.9438
▁kaeta	-10.9438
▁pressure	-10.9438
▁yougisha	-10.944
▁growth	-10.944
▁pointo	-10.9442
ttsu	-10.9443
▁seiji	-10.9446
eba	-10.9446
▁regret	-10.9447
▁toku	-10.9449
▁nite	-10.945
▁whoa	-10.945
hiki	-10.9453
▁kasoku	-10.9457
▁services	-10.9462
kusu	-10.9462
▁Whoever	-10.9464
▁ends	-10.9464
▁tobi	-10.9469
▁Shoujiki	-10.9485
▁teeth	-10.9492
▁upset	-10.9493
▁parts	-10.9497
▁sukunai	-10.9504
▁aji	-10.9506
▁Seifu	-10.951
▁screen	-10.9514
▁yobi	-10.9516
▁Oke	-10.9516
▁shinchou	-10.9516
▁brave	-10.9518
▁nearly	-10.952
▁Sentaku	-10.952
▁animal	-10.9521
▁deserve	-10.9522
▁tape	-10.9523
▁hiite	-10.9524
yama	-10.9524
saseru	-10.9527
▁lecture	-10.9533
▁eggs	-10.954
guru	-10.9542
ak	-10.9544
▁sonkei	-10.9545
▁hero	-10.9548
lly	-10.9549
▁kaetta	-10.9555
ana	-10.9556
▁kasetsu	-10.9557
▁Hahaoya	-10.9557
▁Futsuu	-10.9558
▁Oriba	-10.9563
ose	-10.9563
▁Name	-10.9564
▁doku	-10.9571
▁nimotsu	-10.9571
▁Oru	-10.9575
▁chuushi	-10.9578
▁fo	-10.958
▁Smith	-10.9581
▁Trust	-10.9581
▁religion	-10.9581
▁Until	-10.9581
▁guns	-10.9582
▁nareba	-10.9582
▁mankind	-10.9584
▁Verily	-10.9585
▁kashikoi	-10.9593
▁bullet	-10.9593
▁Clear	-10.9602
▁shimai	-10.9603
▁noticed	-10.9605
▁beauty	-10.9605
▁log	-10.9607
▁kounyuu	-10.9607
▁yubi	-10.9609
▁Gun	-10.9611
▁hikaku	-10.9616
▁Keito	-10.9619
▁sheet	-10.9619
▁Lu	-10.9621
▁yuka	-10.9625
ging	-10.9625
That	-10.9627
▁shiraberu	-10.9627
year	-10.9628
▁shower	-10.9628
▁wise	-10.9629
▁yoroshiku	-10.9629
▁swimming	-10.9629
▁kunkai	-10.9629
▁bajon	-10.963
▁paying	-10.9631
ever	-10.9635
▁jigen	-10.9638
▁kopi	-10.964
▁flying	-10.9644
▁sabisu	-10.9645
▁Ask	-10.9645
▁tsuzuke	-10.9645
▁ataerareta	-10.9649
▁kiss	-10.9653
▁Little	-10.9653
▁permission	-10.9653
▁messages	-10.9654
▁roll	-10.9655
▁film	-10.9657
▁rent	-10.9657
▁houritsu	-10.9659
▁appear	-10.9662
lic	-10.9662
▁kaesu	-10.9665
▁osu	-10.9667
▁naishi	-10.9673
▁kansei	-10.9677
▁henji	-10.9678
lin	-10.9681
ving	-10.9684
▁approach	-10.9684
▁separate	-10.9686
▁Hank	-10.9691
kimasendeshita	-10.9693
▁hashitte	-10.9699
▁wild	-10.9702
▁Terebi	-10.9702
▁Kanari	-10.9708
▁exam	-10.9717
▁aeru	-10.972
▁sagashiteru	-10.9725
▁Talk	-10.9727
▁dirty	-10.9728
▁therefore	-10.9729
▁Doesn	-10.9731
kome	-10.9735
▁Mita	-10.9735
▁shikata	-10.9738
▁mitsukatta	-10.9745
▁birds	-10.9747
ito	-10.9749
▁gradient	-10.9751
▁kibishii	-10.9751
▁nervous	-10.9751
▁Moshimoshi	-10.9751
▁shame	-10.9751
▁lake	-10.9752
▁yukue	-10.9753
▁tachiba	-10.9762
ions	-10.9765
oru	-10.977
▁mamotte	-10.9773
▁camp	-10.9774
▁queen	-10.9775
▁victims	-10.9776
▁zenchi	-10.9788
▁Kim	-10.9789
▁effort	-10.9791
▁koushin	-10.9791
ple	-10.9796
▁gaikoku	-10.9798
▁comfortable	-10.98
▁Carter	-10.98
▁algorithms	-10.9801
▁uriage	-10.9802
▁utagai	-10.9803
▁mojuru	-10.9804
▁warukatta	-10.9805
▁dotchi	-10.9809
▁Love	-10.9817
▁fill	-10.9821
▁brings	-10.9828
▁shinjirarenai	-10.983
▁Arekkusu	-10.9831
michi	-10.9832
▁pop	-10.9834
▁heishi	-10.9848
▁Oya	-10.9849
▁apurike	-10.9849
▁disease	-10.9849
▁carried	-10.9849
▁Tasuke	-10.9849
▁itadakemasu	-10.9849
▁Without	-10.985
▁kaeshite	-10.9851
▁Hatsu	-10.9851
▁obviously	-10.9852
▁riron	-10.9854
pen	-10.9859
▁Nipponnin	-10.9862
▁US	-10.9866
▁tears	-10.9866
▁yoshi	-10.9874
▁kangaekata	-10.9877
▁neru	-10.9881
▁Mon	-10.9885
▁appu	-10.9886
▁sentou	-10.9889
▁senshu	-10.9895
▁haku	-10.9897
▁Yaru	-10.9899
▁Isoide	-10.9899
▁taka	-10.9901
▁keikou	-10.9901
▁kudasareta	-10.9904
ator	-10.9909
▁Tatoe	-10.991
▁nagasa	-10.9916
▁genka	-10.9917
karu	-10.9917
▁lights	-10.9919
IN	-10.992
▁filled	-10.9931
▁meal	-10.9932
▁Ex	-10.9932
▁nose	-10.9934
▁Kagi	-10.9941
▁Save	-10.9942
▁lack	-10.9946
▁ikimashita	-10.9946
▁mimasu	-10.9949
▁asshole	-10.9949
▁captain	-10.9949
▁chicken	-10.995
▁shinzou	-10.995
▁tokuchou	-10.995
▁expression	-10.9951
▁ayamari	-10.9952
▁koukou	-10.9955
▁Shaw	-10.9966
▁henkan	-10.9966
▁hora	-10.9966
▁steps	-10.9967
▁according	-10.9974
▁season	-10.9976
▁bath	-10.9976
▁narete	-10.9976
▁fuyu	-10.9976
▁younger	-10.9977
▁itashimasu	-10.9979
rate	-10.9979
▁kyousou	-10.9982
▁hoshiin	-10.9985
vu	-10.9987
▁seigyo	-10.9987
retto	-10.9987
▁Hara	-10.9988
▁nemutte	-10.9995
▁tantou	-10.9997
▁Probably	-10.9999
▁eizou	-10.9999
▁sharp	-10.9999
▁dekigoto	-11
▁goukaku	-11.0002
mitsu	-11.0006
▁ear	-11.0006
▁kyuuka	-11.0008
kari	-11.001
▁Saki	-11.0013
▁otona	-11.0023
▁pal	-11.0023
▁Phil	-11.0023
▁motta	-11.0025
▁sapoto	-11.0026
▁mitara	-11.0027
▁style	-11.0033
▁standard	-11.0044
kuta	-11.0045
▁ikiru	-11.0047
▁Europe	-11.0048
▁enjin	-11.0048
▁percent	-11.0049
▁THE	-11.0049
▁clever	-11.0049
▁tooshite	-11.005
▁military	-11.0053
tsutsu	-11.0053
▁recall	-11.0055
▁subekida	-11.0056
▁kick	-11.0061
▁yatto	-11.0061
meta	-11.0062
▁Bari	-11.0063
▁slide	-11.0065
▁select	-11.0066
▁mountains	-11.0067
maku	-11.0071
▁plenty	-11.0074
▁meikaku	-11.0077
▁bunka	-11.008
▁ake	-11.0091
▁deatta	-11.0093
▁atsui	-11.0094
▁rise	-11.0099
▁bread	-11.01
▁zubon	-11.01
rui	-11.01
▁load	-11.0101
▁saizen	-11.0102
▁Except	-11.0103
▁length	-11.0104
▁cast	-11.0105
▁haya	-11.0109
▁maketingu	-11.011
▁Finch	-11.0111
▁starts	-11.0111
uri	-11.0112
▁24	-11.0118
▁Bokutachi	-11.012
▁grab	-11.0125
▁purezento	-11.0125
▁Supein	-11.0126
▁fukusuu	-11.0126
▁zaimu	-11.0129
▁farm	-11.013
▁kiro	-11.0135
kare	-11.0137
▁breaking	-11.0138
ude	-11.0139
ker	-11.0141
▁Kako	-11.0143
▁variable	-11.0145
▁kadai	-11.0149
▁fure	-11.0153
▁request	-11.0155
▁Anzen	-11.0156
▁kitaku	-11.0159
ide	-11.0162
▁Bosu	-11.0164
▁Meru	-11.0166
▁shatsu	-11.0166
▁sousaku	-11.017
kiwamete	-11.0172
▁department	-11.0176
▁omoidasu	-11.0177
▁saito	-11.0178
lan	-11.0178
▁Kaze	-11.0185
▁carefully	-11.0186
▁gods	-11.0189
▁advance	-11.0189
tain	-11.0192
kkou	-11.0195
▁neta	-11.0195
▁jail	-11.0195
▁awanai	-11.02
▁Ohahasan	-11.0201
▁excellent	-11.0201
▁happiness	-11.0202
▁Chikyuu	-11.0203
▁sukutta	-11.0204
▁Kawa	-11.0204
▁kisha	-11.0205
9	-11.0206
▁Mmm	-11.0208
▁bet	-11.0209
▁members	-11.0214
▁honto	-11.0216
▁asobi	-11.0216
▁damatte	-11.0216
ass	-11.0224
▁legs	-11.0225
▁global	-11.0229
▁Kantan	-11.0231
▁tonari	-11.0237
▁block	-11.0239
▁fixed	-11.024
▁insuto	-11.0243
▁kotaeru	-11.0243
ning	-11.0243
▁Were	-11.0245
bon	-11.0249
▁crack	-11.0249
▁emergency	-11.0253
▁Ochitsuite	-11.0253
▁Kansuu	-11.0254
doushi	-11.0257
▁25	-11.0257
▁narou	-11.0258
▁fuan	-11.0259
▁invited	-11.0261
▁Chizu	-11.0264
▁desire	-11.0264
▁Want	-11.0265
▁grand	-11.0271
▁interview	-11.0271
▁shuyou	-11.0275
raremasu	-11.0276
▁torment	-11.0279
▁suggest	-11.0281
▁runs	-11.0282
▁Ryou	-11.0282
▁Maria	-11.0283
▁Modotte	-11.0284
▁games	-11.0285
rudo	-11.0285
▁hoshikatta	-11.0286
▁arrested	-11.029
▁band	-11.03
▁chika	-11.0302
▁crowd	-11.0303
▁threw	-11.0304
▁ochi	-11.0309
▁professional	-11.031
▁Sounds	-11.0311
▁pu	-11.0313
▁hima	-11.0318
ranakatta	-11.0322
▁physical	-11.0327
▁buying	-11.0328
▁Satsujin	-11.033
▁lord	-11.0331
▁software	-11.0331
▁jimusho	-11.0332
▁ringo	-11.0332
▁discussion	-11.0332
▁watasu	-11.0332
▁Shuukan	-11.0333
com	-11.0334
▁soushin	-11.0342
▁shison	-11.0348
▁sin	-11.035
▁fa	-11.0351
▁tells	-11.0353
▁Hotondo	-11.0356
▁Monday	-11.0356
▁Doku	-11.0357
▁shimobe	-11.0357
▁Children	-11.0358
▁kousoku	-11.036
▁giin	-11.0366
▁format	-11.0371
▁taimu	-11.0374
▁frame	-11.0374
▁content	-11.0376
▁Must	-11.0377
▁ninki	-11.0377
▁acting	-11.0377
▁solution	-11.038
▁kuukou	-11.0383
▁Mar	-11.0384
▁chizu	-11.0385
▁jimu	-11.0385
▁becomes	-11.0391
▁soldiers	-11.0391
▁Byou	-11.0392
▁shown	-11.0392
▁Adamu	-11.0405
▁parameter	-11.0407
▁enemies	-11.0408
▁ochite	-11.041
▁Suta	-11.0419
ls	-11.042
▁reasons	-11.0427
▁firu	-11.0431
▁koshou	-11.0433
▁exercise	-11.0435
▁sukunakutomo	-11.0435
date	-11.0436
▁1,	-11.0438
ld	-11.0439
▁yuukan	-11.0443
▁photo	-11.0445
▁iou	-11.0455
▁distribution	-11.0461
▁extremely	-11.0462
▁sumanai	-11.0462
king	-11.048
▁nama	-11.0485
▁tatoe	-11.0485
▁oishii	-11.0488
▁hataraki	-11.0489
▁osoroshii	-11.0489
▁sakuya	-11.049
▁sooner	-11.049
▁quality	-11.0494
ac	-11.0495
ir	-11.0501
tor	-11.0502
▁foruda	-11.0504
▁kouza	-11.0508
▁sarenai	-11.0511
▁column	-11.0513
▁sotsugyou	-11.0514
▁alright	-11.0514
▁sanpuru	-11.0514
▁chief	-11.0515
▁surukara	-11.0517
▁north	-11.0519
▁yoruto	-11.0519
▁chose	-11.0524
▁sugoshita	-11.0524
kute	-11.0524
▁string	-11.0525
▁Hari	-11.0531
▁hitei	-11.0532
▁sending	-11.0534
▁ladies	-11.054
▁Six	-11.0541
▁Harry	-11.0542
▁Min	-11.0542
▁namida	-11.0543
▁tayori	-11.0543
▁stars	-11.0544
▁kiiteru	-11.0552
toru	-11.0554
▁Send	-11.0555
op	-11.0557
▁Add	-11.0565
▁Four	-11.0566
▁saiban	-11.0567
▁chuumoku	-11.0567
▁descent	-11.0567
▁sumimasen	-11.057
▁Sakki	-11.0571
▁career	-11.0571
▁agreed	-11.0574
▁konakatta	-11.0574
▁bite	-11.0574
▁Yuuki	-11.0575
▁Kill	-11.0581
▁genshou	-11.0583
▁Du	-11.0586
▁previous	-11.059
▁rinku	-11.0593
▁economic	-11.0593
▁crap	-11.0594
▁ippou	-11.0597
ped	-11.0602
▁nakushita	-11.0606
▁mireba	-11.0608
▁arawareta	-11.0608
but	-11.0612
▁hanashitai	-11.0613
▁Van	-11.0615
bekide	-11.0616
▁input	-11.0617
▁fired	-11.0618
▁Igirisu	-11.0618
▁fellow	-11.062
▁fushigi	-11.0621
▁Unless	-11.0622
▁tamago	-11.0622
▁Sato	-11.0623
▁El	-11.0624
▁nokoshite	-11.0627
▁Dakedo	-11.0627
);	-11.0627
boru	-11.0628
naka	-11.0632
rubeki	-11.0632
▁operations	-11.0634
▁remains	-11.0638
▁tazunete	-11.064
▁print	-11.064
ase	-11.0646
▁Hidari	-11.0647
▁seisei	-11.0647
▁Machigai	-11.0649
▁tu	-11.065
▁saving	-11.0653
▁annai	-11.0653
▁costs	-11.0657
▁kaiki	-11.0664
▁surudeshou	-11.0664
▁kagen	-11.0668
▁bright	-11.0669
rudarou	-11.067
▁Kekkyoku	-11.0673
▁Brown	-11.0673
▁oroka	-11.0681
▁objects	-11.0681
▁mass	-11.0686
ride	-11.0687
▁daichi	-11.069
▁fukkatsu	-11.07
▁possibly	-11.07
▁umbrella	-11.07
day	-11.07
▁excited	-11.07
▁kuwashiku	-11.07
▁Oyasumi	-11.0701
▁kuuki	-11.0702
▁Honki	-11.0707
▁miseru	-11.0709
▁st	-11.071
▁naibu	-11.0712
side	-11.0715
▁introduce	-11.0715
▁oso	-11.0716
▁hoshiku	-11.072
▁Same	-11.0721
▁tatete	-11.0721
▁connect	-11.0724
▁East	-11.0727
▁Ugoku	-11.0728
▁tsuzuku	-11.0728
▁koutsuu	-11.0729
▁disbelieve	-11.0729
▁letters	-11.0729
▁kankaku	-11.073
▁Stark	-11.0731
▁Yume	-11.0733
▁Jouhou	-11.0735
▁Omaera	-11.0735
▁Hahasan	-11.0737
▁goal	-11.074
▁kaeri	-11.074
asu	-11.0744
▁Mise	-11.0748
back	-11.0748
▁successful	-11.0752
▁tsuri	-11.0753
▁anshin	-11.0754
▁birth	-11.0754
▁plain	-11.0754
▁appointment	-11.0754
▁Chikushou	-11.0755
▁kakan	-11.0756
▁arawasu	-11.0756
▁dry	-11.0757
▁kakko	-11.0763
▁managed	-11.0765
▁Shall	-11.0766
▁Sun	-11.0767
▁sumi	-11.0771
▁akai	-11.0773
soever	-11.0777
▁sudden	-11.0778
▁nuke	-11.0779
▁yoroshii	-11.078
▁Robert	-11.0781
▁chin	-11.0781
▁Setsumei	-11.0781
▁audience	-11.0781
▁television	-11.0781
▁upstairs	-11.0781
▁valuable	-11.0781
▁complex	-11.0781
▁tongue	-11.0782
▁debit	-11.0782
▁tail	-11.0791
chu	-11.0796
▁hatsu	-11.0798
▁shikaku	-11.0799
muki	-11.0801
▁iryoku	-11.0803
▁Si	-11.0806
▁Santa	-11.0808
▁World	-11.0808
▁presence	-11.0808
▁chikazuite	-11.0809
▁various	-11.0809
▁furendo	-11.0809
▁revenue	-11.0812
▁shirabe	-11.0816
▁document	-11.0816
▁Kiken	-11.0823
▁keisansho	-11.0824
resu	-11.0828
▁kansatsu	-11.083
▁studied	-11.0836
▁basically	-11.0836
▁hane	-11.0844
sion	-11.0845
▁risu	-11.0846
▁hello	-11.0847
▁forced	-11.0854
▁houmon	-11.0855
▁kanyou	-11.0856
▁turning	-11.0857
▁exact	-11.086
▁aete	-11.0862
▁dattakara	-11.0862
▁kawatte	-11.0862
▁Lisbon	-11.0863
▁Rai	-11.0864
▁h	-11.0864
▁darkness	-11.0865
▁cards	-11.0866
▁directly	-11.0868
ative	-11.0874
▁Gan	-11.0875
▁inotte	-11.0875
▁tie	-11.0883
▁iwanaide	-11.0884
ious	-11.0885
▁YOU	-11.089
▁temperature	-11.089
▁hyaku	-11.0891
▁Amanda	-11.0892
▁Each	-11.0892
▁jogen	-11.0892
▁discovered	-11.0894
▁naidarou	-11.0895
▁nigeru	-11.0896
▁port	-11.0897
▁West	-11.0905
▁Tei	-11.0907
▁orimasu	-11.0917
▁Isoge	-11.0918
▁Reese	-11.0918
▁omowanakatta	-11.0919
▁yuukai	-11.0923
▁root	-11.0924
▁connected	-11.0925
▁provided	-11.0937
that	-11.0938
▁Ijou	-11.0941
▁waku	-11.0942
▁yoyaku	-11.0945
▁yameru	-11.0945
▁Although	-11.0945
▁Otouto	-11.0946
▁Tokuni	-11.0946
ism	-11.0946
▁Sensou	-11.0949
▁nagare	-11.0952
▁Den	-11.0957
▁bloody	-11.0964
▁crash	-11.0966
▁yurushi	-11.097
▁taisho	-11.0971
▁England	-11.0973
▁cousin	-11.0973
▁Easy	-11.0973
▁ippanteki	-11.0978
▁Close	-11.0979
▁novel	-11.0984
zi	-11.0984
bye	-11.0986
▁chichisan	-11.0993
▁shooting	-11.0998
▁deforuto	-11.1001
▁Internet	-11.1001
▁suicide	-11.1001
▁barely	-11.1003
▁Seriously	-11.1004
▁soft	-11.1005
▁inoru	-11.1005
▁happyou	-11.1006
▁monster	-11.1009
j	-11.1013
▁stands	-11.1018
chatta	-11.1019
▁fusei	-11.1021
▁attempt	-11.1022
▁Park	-11.1023
▁omoenai	-11.1027
▁shiriai	-11.1032
▁spoken	-11.1032
▁organization	-11.1035
▁boi	-11.1047
▁besides	-11.1048
▁tip	-11.1048
▁kesshi	-11.105
▁fuckin	-11.1051
▁dorei	-11.1055
keta	-11.1059
mete	-11.1059
▁mamori	-11.106
▁kasa	-11.1063
▁tekisetsu	-11.1066
▁mushiro	-11.1066
▁imasuga	-11.1067
aun	-11.1072
▁growing	-11.1073
▁ca	-11.1079
▁juku	-11.1082
▁tsukue	-11.1084
▁especially	-11.1084
▁regression	-11.1084
▁kyouyuu	-11.1087
▁mananda	-11.1087
▁debaisu	-11.1088
▁Nakama	-11.1088
▁Kaisha	-11.1089
▁File	-11.1094
▁Migi	-11.1095
▁kurashi	-11.1097
▁aruga	-11.1099
▁headed	-11.1103
▁Friday	-11.1112
▁kimyou	-11.1113
▁tsume	-11.1116
▁kaji	-11.1124
▁Taiyou	-11.1125
▁Karen	-11.1127
▁south	-11.113
▁hiraite	-11.1134
▁shirimasen	-11.1137
ned	-11.1139
▁fought	-11.1141
▁Life	-11.1141
▁devil	-11.1141
▁Tepu	-11.1146
▁Kagetsu	-11.1147
▁goutou	-11.1151
▁debt	-11.1153
▁Home	-11.1158
▁tsuiteru	-11.1158
▁narun	-11.1159
▁Ray	-11.1162
▁items	-11.1164
ikyuu	-11.1166
▁mode	-11.1168
▁background	-11.117
▁raining	-11.1172
▁tsukurareta	-11.1176
▁bastard	-11.1177
▁healthy	-11.1178
▁kinen	-11.1186
uto	-11.1186
▁tsutae	-11.1189
▁kyoui	-11.1191
▁highly	-11.1194
▁Neko	-11.1195
▁multiple	-11.1197
▁bathroom	-11.1197
▁itadakemasen	-11.1197
▁Barry	-11.1199
▁Saul	-11.1199
suka	-11.1199
ial	-11.12
▁ojisan	-11.1202
▁collect	-11.1205
▁whenever	-11.1206
▁apple	-11.1208
▁aisuru	-11.1208
▁haratte	-11.1209
To	-11.1216
▁wash	-11.1221
▁shimeshite	-11.1224
▁onozomi	-11.1226
▁ryouiki	-11.1227
▁shuukyou	-11.1228
▁taitei	-11.1228
▁grown	-11.1231
▁pair	-11.1232
▁ok	-11.1236
▁mai	-11.1237
▁kie	-11.1238
▁wide	-11.1241
▁chikau	-11.1243
▁attacked	-11.1248
▁Jun	-11.1248
▁Byouin	-11.1258
▁lend	-11.1259
▁Shinu	-11.1263
▁mayaku	-11.1264
▁compute	-11.1266
uka	-11.127
▁yuuna	-11.1273
▁Air	-11.128
▁niwa	-11.1281
▁Again	-11.1282
▁According	-11.1282
▁bullshit	-11.1282
▁Nyuyoku	-11.1282
▁Finally	-11.1283
▁kakujitsu	-11.1284
oka	-11.1289
▁netsu	-11.1292
▁newspaper	-11.1293
▁dankai	-11.1293
▁tsuitachi	-11.1294
▁Tama	-11.1295
▁teaching	-11.1299
▁okureta	-11.13
▁shirarete	-11.13
▁ito	-11.1305
▁shopping	-11.1305
▁Naruhodo	-11.1311
▁activity	-11.1311
▁community	-11.1311
▁guai	-11.1312
vin	-11.1314
▁chuusha	-11.1316
▁tateru	-11.1321
▁route	-11.1323
ketto	-11.1324
amashii	-11.1329
work	-11.1335
▁develop	-11.1337
▁mukau	-11.1339
▁Shounen	-11.134
▁spell	-11.1342
▁Aren	-11.1344
mashite	-11.1345
▁Bad	-11.1348
▁strike	-11.135
over	-11.1353
ppou	-11.1354
▁habit	-11.1354
▁haru	-11.1354
▁release	-11.1357
▁Tan	-11.1357
▁buru	-11.136
▁Cut	-11.1363
▁wound	-11.1364
▁explanation	-11.1368
▁grateful	-11.1368
▁Sukunakutomo	-11.1368
▁Uma	-11.1369
▁Carol	-11.1369
▁Better	-11.137
▁aisatsu	-11.137
▁houses	-11.137
▁kakushite	-11.137
let	-11.1371
▁Yuujin	-11.1372
▁Ochitsuke	-11.1375
▁burned	-11.1379
▁regular	-11.1383
nain	-11.1385
areta	-11.1386
rry	-11.1387
▁anatatachi	-11.1387
▁shiren	-11.1391
eimei	-11.1392
▁hataraita	-11.1397
▁unzari	-11.1397
▁Chichioya	-11.1397
▁capable	-11.1397
▁resources	-11.14
▁watatte	-11.1402
▁session	-11.1402
▁memori	-11.1405
▁player	-11.1409
▁folder	-11.141
▁web	-11.1415
▁keiei	-11.1415
▁maiku	-11.1416
▁inta	-11.1417
▁Select	-11.1418
▁Kangae	-11.142
▁iruto	-11.142
▁minai	-11.142
baku	-11.1421
▁aside	-11.1421
▁joushi	-11.1422
▁options	-11.1422
bekidatta	-11.1422
▁Ser	-11.1424
▁senmon	-11.1426
▁omise	-11.1426
▁toreningu	-11.1426
▁tsuushin	-11.1426
▁trace	-11.1427
▁kizuite	-11.1429
▁korosou	-11.1434
▁treated	-11.1437
▁haichi	-11.1443
▁Start	-11.1444
▁kanjite	-11.1444
▁Wake	-11.1452
▁astray	-11.1455
▁Mainichi	-11.1455
▁susumu	-11.1455
▁itaga	-11.1456
▁Down	-11.1457
▁kitta	-11.146
▁dumb	-11.1463
▁sentakushi	-11.1463
▁Long	-11.1464
▁larger	-11.1466
▁Haru	-11.1466
▁cooking	-11.1467
▁relax	-11.1468
▁erareru	-11.1469
▁yaritai	-11.1469
ingu	-11.147
▁sc	-11.1476
▁fishing	-11.1477
▁saji	-11.1479
▁obvious	-11.148
▁policy	-11.1484
▁response	-11.1484
▁Imouto	-11.1484
▁koufun	-11.1484
▁okurimono	-11.1485
▁hill	-11.1485
▁denki	-11.1487
ical	-11.1487
▁appointed	-11.1487
▁tools	-11.1506
▁responsibility	-11.1514
▁nazo	-11.1514
▁Lieutenant	-11.1515
▁kage	-11.1516
▁experiment	-11.1516
▁active	-11.1519
▁w	-11.1523
▁200	-11.1524
▁bokutachi	-11.1529
▁accepted	-11.153
▁ihan	-11.1532
▁awake	-11.1533
▁konomi	-11.1539
▁iimasu	-11.1541
▁concert	-11.1542
▁purosesu	-11.1542
▁kaete	-11.1543
▁jitsugen	-11.1545
rt	-11.1546
▁houkokusho	-11.1546
▁mask	-11.1546
▁arata	-11.1548
▁Bon	-11.1548
▁nokoru	-11.1549
▁events	-11.1551
▁centricity	-11.1554
▁spirit	-11.1556
▁daitai	-11.1557
▁yasumi	-11.1562
▁wakaran	-11.1563
▁repeat	-11.1564
▁keibi	-11.157
▁tax	-11.1572
▁yakudatsu	-11.1572
▁tsuini	-11.1575
▁adoresu	-11.1576
▁showing	-11.1579
▁national	-11.1583
▁shihon	-11.1585
▁Aka	-11.1594
nderu	-11.1594
takara	-11.1596
kasu	-11.1598
otte	-11.1599
▁definition	-11.1601
▁yorokobi	-11.1601
▁notes	-11.1602
kashi	-11.1602
▁Takusan	-11.1603
▁Follow	-11.1603
▁member	-11.1606
▁hobo	-11.1606
neba	-11.1614
▁mukete	-11.1615
▁math	-11.1616
▁define	-11.1619
▁hanasanai	-11.1624
▁link	-11.1627
im	-11.1628
▁shimin	-11.1628
▁university	-11.163
▁vision	-11.1631
▁taikutsu	-11.1631
▁bokkusu	-11.1631
▁omo	-11.1633
▁Green	-11.1642
▁pocket	-11.1644
▁systems	-11.1645
▁pattern	-11.1646
oshi	-11.165
▁kokka	-11.1651
▁prevent	-11.1653
yoi	-11.166
▁pregnant	-11.166
▁Chief	-11.166
▁wakamono	-11.166
▁database	-11.1661
▁Hyou	-11.1662
▁Shinjitsu	-11.1663
▁sets	-11.1663
guri	-11.1665
ther	-11.1669
▁perfectly	-11.167
▁firudo	-11.1673
▁suffer	-11.1674
▁heads	-11.1676
▁angel	-11.1677
▁shoyuu	-11.1677
▁indou	-11.1685
▁transfer	-11.1689
▁stomach	-11.169
▁laid	-11.169
▁authority	-11.169
fo	-11.169
▁Keikaku	-11.1691
▁Happy	-11.1691
▁Drop	-11.1692
▁anger	-11.1695
▁Pull	-11.1703
▁liar	-11.1706
▁Roma	-11.1707
▁Gai	-11.1719
▁Sherlock	-11.1719
▁Merciful	-11.172
▁tsurai	-11.172
▁kenshutsu	-11.1721
▁including	-11.1721
▁somehow	-11.1722
▁otherwise	-11.1722
▁kikanai	-11.1724
▁waited	-11.1729
▁role	-11.173
▁metal	-11.1737
▁forest	-11.1741
▁display	-11.1742
▁Kure	-11.1744
ber	-11.1749
▁incident	-11.1749
▁France	-11.175
▁teishutsu	-11.175
▁shujutsu	-11.175
▁ruin	-11.1751
▁depends	-11.1756
▁honno	-11.1756
head	-11.1756
▁tororu	-11.1761
▁minami	-11.1763
▁tool	-11.1766
▁kojin	-11.177
▁ittenai	-11.1775
▁equity	-11.1779
▁hajimatta	-11.1779
▁shokuryou	-11.178
rain	-11.1782
ries	-11.1782
▁Desu	-11.1782
▁surface	-11.1782
▁Abu	-11.1784
▁okonatte	-11.1784
▁kikoeta	-11.1785
▁yochi	-11.1786
▁omoe	-11.1789
▁Firu	-11.179
ward	-11.179
gure	-11.1791
▁haruka	-11.1797
gon	-11.1802
▁geki	-11.1803
basu	-11.1807
RE	-11.1808
▁Muhammad	-11.1809
▁Ookina	-11.1809
▁sukui	-11.181
▁sekkei	-11.181
▁ookisa	-11.181
darake	-11.1814
▁Kotae	-11.1815
uran	-11.1816
▁dust	-11.1817
▁maa	-11.1818
▁salt	-11.1818
jon	-11.1819
▁Jan	-11.182
▁South	-11.1822
▁engine	-11.1828
▁yousu	-11.1828
▁Iki	-11.1831
▁Ran	-11.1832
▁absent	-11.1839
▁understood	-11.1839
▁Besides	-11.1839
▁Patona	-11.184
▁mujitsu	-11.1841
▁samui	-11.1842
sk	-11.1842
▁Oshiete	-11.1842
▁gainen	-11.1842
▁Keitai	-11.1843
▁tsukaimasu	-11.1844
▁umare	-11.1844
▁zai	-11.1846
▁shirabeta	-11.1846
daka	-11.1848
▁nedan	-11.1852
▁miemasu	-11.1854
▁laughing	-11.1855
Oh	-11.1857
▁kamawanai	-11.1857
▁muchuu	-11.1858
down	-11.1859
▁chosen	-11.186
▁13	-11.1862
▁Fe	-11.1866
▁intend	-11.1867
▁kurisumasu	-11.187
▁license	-11.187
▁strategy	-11.187
▁Yep	-11.187
▁Chanto	-11.1872
garu	-11.1872
▁Ron	-11.1873
▁taxi	-11.1878
▁wasure	-11.1879
▁iikara	-11.188
▁nakattara	-11.1883
▁plant	-11.1884
▁hikui	-11.1886
▁dressed	-11.1888
▁inaku	-11.1888
▁sakka	-11.189
▁Nor	-11.1891
▁painful	-11.1898
▁female	-11.19
▁shuumatsu	-11.1901
▁shingou	-11.1901
▁grandfather	-11.1902
My	-11.1904
▁nenrei	-11.1906
▁rai	-11.1906
▁hashiru	-11.1906
▁manage	-11.1908
▁kansen	-11.1908
▁kaimono	-11.1908
▁Sorera	-11.1912
▁soldier	-11.1923
ccha	-11.1923
▁influence	-11.1925
bari	-11.193
▁DNA	-11.193
▁menbaa	-11.193
▁Shibaraku	-11.193
▁Rick	-11.1931
▁chuumon	-11.1932
▁oyaji	-11.1934
▁shuudan	-11.1935
▁attend	-11.1938
▁Alan	-11.194
▁Dave	-11.1942
mado	-11.1944
▁kakuho	-11.1945
▁borrow	-11.1945
▁eaten	-11.1946
▁kire	-11.1952
▁click	-11.1952
▁allows	-11.1958
▁humans	-11.1959
▁Horu	-11.1959
▁Martin	-11.1961
▁fortune	-11.1961
▁prize	-11.1961
▁Jimmy	-11.1962
▁former	-11.1966
▁soitsu	-11.1968
▁gozen	-11.1973
taru	-11.1977
▁yousei	-11.1979
▁nowhere	-11.1979
▁righteous	-11.1987
▁lately	-11.1991
▁proposal	-11.1991
▁kangei	-11.1992
▁Previously	-11.1992
▁tome	-11.1993
▁Shashin	-11.1995
▁bunsho	-11.1997
▁senchou	-11.1998
▁ikani	-11.2
▁kurou	-11.2011
▁switch	-11.2015
▁Yet	-11.2019
▁probability	-11.2022
▁professor	-11.2022
pan	-11.2026
▁hankou	-11.2027
ida	-11.2028
▁designed	-11.2032
my	-11.2032
▁bow	-11.2032
▁kaidan	-11.2034
▁kichi	-11.2039
▁answered	-11.2044
▁du	-11.2048
▁dealing	-11.2048
▁hanare	-11.2049
▁yurushite	-11.2052
▁Police	-11.2053
▁Sugoku	-11.2053
▁aibou	-11.2056
▁rashii	-11.2056
▁jinrui	-11.2064
sasete	-11.2067
▁Sora	-11.2068
▁susume	-11.207
▁Sake	-11.207
▁irudarou	-11.2071
▁Things	-11.2073
▁forces	-11.2076
▁supotsu	-11.2084
▁throat	-11.2084
▁Tabako	-11.2084
▁tassei	-11.2084
▁Seven	-11.2085
▁edge	-11.2085
▁kouzou	-11.2087
▁kokusai	-11.2087
nchi	-11.209
▁pato	-11.2091
▁suto	-11.2095
▁14	-11.2096
▁fe	-11.2098
uinn	-11.2099
▁kokumin	-11.2115
▁glasses	-11.2118
▁kyo	-11.212
▁Buki	-11.212
,000	-11.2125
▁Shh	-11.2126
▁efforts	-11.2126
▁added	-11.2127
▁tanoshinde	-11.2127
▁units	-11.2127
▁tsure	-11.2128
▁senshi	-11.213
▁sumai	-11.2134
▁affect	-11.2137
▁susunde	-11.2138
▁faces	-11.2143
▁courage	-11.2146
▁module	-11.2146
▁password	-11.2146
▁dorobou	-11.2146
▁sakuhin	-11.2147
▁motion	-11.2149
▁tsukihi	-11.2151
chaku	-11.2163
muke	-11.2165
▁pot	-11.2165
▁aki	-11.2167
▁Itaria	-11.2168
▁yogensha	-11.2174
▁expecting	-11.2174
▁Professor	-11.2177
▁Guess	-11.2177
▁Brody	-11.2177
▁Lucy	-11.2177
▁Lady	-11.2178
▁watashite	-11.2179
▁Claire	-11.218
▁Hajimete	-11.2182
▁surunara	-11.2186
▁host	-11.2187
▁kasu	-11.2187
▁Pen	-11.2187
▁defend	-11.219
▁height	-11.2191
mento	-11.2193
▁koete	-11.2194
▁fucked	-11.2195
▁senkyo	-11.2196
▁loud	-11.2201
▁naideshou	-11.2203
▁honki	-11.2207
▁earthquake	-11.2208
▁universe	-11.2208
▁kyoutsuu	-11.221
▁shomei	-11.221
▁Ichiban	-11.2211
▁Li	-11.2215
▁associate	-11.222
▁arguments	-11.2221
senai	-11.2223
▁risuku	-11.2229
▁transaction	-11.2233
▁potential	-11.2236
▁riku	-11.2239
▁grave	-11.2239
▁Exactly	-11.2239
▁Holmes	-11.2239
▁Booth	-11.2241
▁development	-11.2241
▁ochitsuite	-11.2241
▁shiroi	-11.2244
▁sedai	-11.2244
▁Carl	-11.2247
▁pack	-11.2248
py	-11.2248
▁j	-11.2249
▁ships	-11.2254
▁fate	-11.2258
get	-11.226
▁sasenai	-11.2261
▁erande	-11.2261
▁cheap	-11.2268
▁mitsukaru	-11.2271
modo	-11.2272
▁Danny	-11.2272
▁shuunyuu	-11.2272
▁koya	-11.2276
AR	-11.2278
oi	-11.2282
rarenakatta	-11.2284
▁letting	-11.229
nia	-11.23
▁kouchiku	-11.2303
▁forgotten	-11.2305
▁jikoku	-11.2305
▁busshitsu	-11.2307
▁Kawaii	-11.2307
▁Kotoshi	-11.2308
ities	-11.2311
▁becoming	-11.2314
▁succeeded	-11.2314
▁male	-11.2319
▁Pu	-11.2319
▁enjoyed	-11.2323
izing	-11.2328
▁dezain	-11.2329
▁haka	-11.2329
▁Era	-11.233
▁Bura	-11.233
▁joy	-11.2331
▁haitteru	-11.2333
▁imeji	-11.2334
▁Harold	-11.2334
▁tsukamaeta	-11.2336
▁Commander	-11.2336
▁treatment	-11.2337
▁Dotchi	-11.2344
▁oboe	-11.2347
▁akeru	-11.235
rasete	-11.2354
▁Hanku	-11.2359
gaki	-11.2362
▁mitomeru	-11.2363
▁Old	-11.2365
▁changing	-11.2366
▁velocity	-11.2366
▁tateta	-11.2366
▁Baby	-11.2367
▁nokoshita	-11.237
▁Kibun	-11.2375
▁bone	-11.2377
▁trusted	-11.2378
▁kurikaeshi	-11.238
zz	-11.238
rm	-11.2382
▁languages	-11.2383
ization	-11.2383
▁Motte	-11.2384
▁wakusei	-11.2385
▁Hand	-11.2398
▁wallet	-11.2399
▁Congratulations	-11.2399
▁choushoku	-11.24
▁factory	-11.2401
▁taiki	-11.2406
▁houshuu	-11.2412
▁Ori	-11.2415
▁chigatte	-11.2415
gami	-11.2416
izu	-11.2417
▁thousands	-11.2418
▁Sotchi	-11.2419
▁tero	-11.2425
fer	-11.2429
▁Street	-11.243
▁journey	-11.243
▁staff	-11.243
▁nattoku	-11.243
▁hanareta	-11.2431
▁dasshutsu	-11.2431
dic	-11.2432
▁sutsu	-11.2433
▁senmonka	-11.2435
▁Chuu	-11.244
▁omachi	-11.2441
▁concern	-11.2441
▁shinakya	-11.245
▁imada	-11.245
▁tonde	-11.245
▁symbol	-11.246
▁Kyaroru	-11.2462
▁nurse	-11.2462
▁disbelievers	-11.2462
▁forgiveness	-11.2463
▁directory	-11.2465
▁shitakara	-11.2466
▁Ongaku	-11.2466
▁degrees	-11.2466
ara	-11.2467
▁billion	-11.2467
▁disappeared	-11.2468
▁Kirei	-11.2468
▁fake	-11.2471
pro	-11.2472
sete	-11.2473
▁Mizuki	-11.2473
io	-11.2475
▁Chari	-11.2478
▁smaller	-11.2483
▁aoi	-11.2483
▁matta	-11.2487
ded	-11.2493
nsu	-11.2494
▁moraemasu	-11.2496
▁dollar	-11.2497
▁Sukeru	-11.2498
▁Dude	-11.2499
▁purojekuto	-11.2499
▁mazui	-11.25
▁dase	-11.2502
▁suffering	-11.2503
▁sons	-11.2506
▁Daniel	-11.2507
▁Jones	-11.2507
kkyou	-11.2509
▁bunya	-11.2512
▁kaigai	-11.2513
▁suuchi	-11.2515
▁Iesu	-11.2517
suki	-11.252
▁profile	-11.2522
▁finger	-11.2523
▁Sudeni	-11.2526
▁hypothesis	-11.2526
▁Higaisha	-11.2526
▁Either	-11.2526
▁joushou	-11.253
▁hanasou	-11.2532
▁shinkei	-11.2534
▁orite	-11.2538
▁freak	-11.2539
act	-11.2541
▁beru	-11.2546
▁kizuku	-11.2548
▁pet	-11.2557
▁Isuraeru	-11.2559
▁Kanarazu	-11.2559
▁chikazuku	-11.2559
▁status	-11.2559
▁Kuro	-11.2559
▁Kamera	-11.2559
▁yakuwari	-11.2559
▁Roger	-11.256
▁resu	-11.256
▁bro	-11.2564
▁outou	-11.2565
▁Wakatte	-11.2566
▁Yuki	-11.2567
▁modore	-11.257
▁cho	-11.2577
▁guided	-11.2578
▁Ooh	-11.258
ishi	-11.2581
ushi	-11.2586
▁kuu	-11.2586
▁seitou	-11.2588
▁wakattenai	-11.2589
▁Suto	-11.2591
▁Saturday	-11.2591
▁Tomorrow	-11.2591
▁ganbatte	-11.2591
▁Shinjirarenai	-11.2591
▁Renraku	-11.2592
▁Ryan	-11.2592
▁chuushoku	-11.2592
ranaide	-11.2592
▁atsukau	-11.2593
▁shitsu	-11.2593
saseta	-11.2597
▁however	-11.2599
▁kaishaku	-11.26
▁mijikai	-11.26
▁rat	-11.2606
▁singing	-11.2608
▁Honey	-11.261
▁singer	-11.261
bb	-11.2613
▁gouka	-11.2616
▁dekakeru	-11.2618
▁necessarily	-11.2624
▁tometa	-11.2624
▁Mommy	-11.2625
▁housou	-11.2628
▁kagiranai	-11.2629
▁TO	-11.263
▁hairanai	-11.2631
▁kumi	-11.2636
▁ageyou	-11.264
val	-11.2641
▁grade	-11.2641
▁begins	-11.2644
▁skills	-11.2645
mail	-11.2645
▁fuka	-11.2646
▁okurete	-11.265
yasu	-11.265
▁minus	-11.2651
▁bura	-11.2654
ndemo	-11.2655
▁activities	-11.2656
▁equation	-11.2656
▁yoroppa	-11.2656
▁neighborhood	-11.2656
▁Yuushoku	-11.2657
▁Onaka	-11.266
▁shien	-11.2661
▁granted	-11.2662
▁patan	-11.2664
reteru	-11.2665
▁shumi	-11.2666
▁ease	-11.267
▁fuki	-11.267
▁flower	-11.2673
▁nasa	-11.2677
▁guntai	-11.2677
▁Yori	-11.2679
▁shiwake	-11.2681
▁Always	-11.2689
▁illegal	-11.2689
▁Yappari	-11.269
▁kyogi	-11.2691
▁formula	-11.2694
▁prayer	-11.2694
▁fukou	-11.2695
▁koukoku	-11.2696
▁aunt	-11.2696
▁statements	-11.2698
▁satta	-11.2698
▁sashi	-11.2699
▁produce	-11.2701
▁Aku	-11.2703
▁teru	-11.2703
▁Wi	-11.2703
▁shimei	-11.2704
Z	-11.2705
▁Ikura	-11.2705
▁surude	-11.2712
▁Boy	-11.2713
▁lift	-11.2714
▁murderer	-11.2716
▁okimasu	-11.2717
▁breathe	-11.2718
▁Shinjite	-11.2719
▁commit	-11.272
▁doors	-11.2721
▁identity	-11.2722
▁okuri	-11.2722
▁kubetsu	-11.2723
▁Shouko	-11.2724
▁Michiko	-11.2726
▁shake	-11.2729
▁aruku	-11.273
▁kijun	-11.273
▁kindness	-11.2733
▁Eki	-11.2733
How	-11.2741
▁schedule	-11.2743
▁matto	-11.2743
▁seigi	-11.2743
▁douryou	-11.2743
▁kyousei	-11.2746
▁bunrui	-11.2754
▁material	-11.2755
▁shiwaza	-11.2755
▁Charles	-11.2755
jun	-11.2756
wareta	-11.2758
ray	-11.2758
▁Pretty	-11.2758
▁kinkyuu	-11.2758
▁kyoukyuu	-11.2758
▁jacket	-11.276
▁kengen	-11.2763
kereba	-11.2764
▁images	-11.2766
npou	-11.2766
kage	-11.2767
kete	-11.2775
If	-11.2779
▁onaka	-11.2781
▁aou	-11.2785
▁signed	-11.2786
▁biggest	-11.2788
▁grandmother	-11.2788
▁silent	-11.2788
▁freedom	-11.2788
▁sesshoku	-11.2788
▁benefit	-11.2788
▁meihaku	-11.2789
▁nakanaka	-11.2789
▁Forget	-11.279
▁asonde	-11.2792
▁legal	-11.2793
matte	-11.2793
otta	-11.2799
▁Wakai	-11.2803
▁Yama	-11.2803
▁recommend	-11.2809
▁cure	-11.2812
▁escaped	-11.2813
▁kakarimasu	-11.2814
▁bike	-11.2816
▁daun	-11.282
▁ridiculous	-11.2821
▁insane	-11.2822
▁illness	-11.2823
▁shougun	-11.2823
▁actual	-11.2824
▁castle	-11.2825
▁ushi	-11.2827
▁maketto	-11.2829
▁Ow	-11.2834
▁haji	-11.2834
▁secrets	-11.2843
ppo	-11.2843
▁express	-11.2845
▁constant	-11.2851
▁keshite	-11.2854
▁thief	-11.2855
▁committed	-11.2855
▁affair	-11.2856
rimashita	-11.2857
▁Tri	-11.2857
▁tameshite	-11.2859
▁Yatto	-11.2859
▁rikon	-11.2861
▁Abraham	-11.2862
▁soutou	-11.2863
▁Yare	-11.2864
▁motome	-11.2866
▁shine	-11.2867
▁ID	-11.2871
▁rescue	-11.2872
▁warn	-11.2879
▁Itta	-11.2881
▁Mekishiko	-11.2888
▁ancient	-11.2888
▁political	-11.2888
▁burst	-11.2888
▁Anyone	-11.2889
▁limit	-11.289
▁Daigaku	-11.289
not	-11.2892
▁yami	-11.2899
ress	-11.29
▁jitto	-11.2901
cal	-11.2903
▁writer	-11.2903
biru	-11.2903
▁related	-11.2906
▁awasete	-11.291
▁sadame	-11.2911
▁ara	-11.2913
▁Aran	-11.2915
▁kuin	-11.2916
tari	-11.2916
▁shimete	-11.2919
▁irunara	-11.2921
▁Iburahimu	-11.2922
▁Tatsuya	-11.2922
ina	-11.2922
AN	-11.2922
▁exit	-11.2923
▁Alice	-11.2925
▁owatte	-11.2929
▁pita	-11.293
▁henshuu	-11.2932
van	-11.2936
▁bakku	-11.2937
▁baru	-11.2952
▁Kansha	-11.2952
▁yowai	-11.2952
▁downstairs	-11.2955
▁region	-11.2955
▁uketotta	-11.2955
▁modern	-11.2956
▁virus	-11.2956
▁sukkari	-11.2956
▁suteppu	-11.2957
▁dekireba	-11.2957
▁Suwatte	-11.296
▁jidousha	-11.2961
▁structure	-11.2962
▁Eiga	-11.2963
▁stranger	-11.2965
▁earned	-11.2966
▁shinyuu	-11.2971
bs	-11.2973
nbou	-11.2974
▁hired	-11.2975
▁inform	-11.2977
▁Mai	-11.2977
▁beta	-11.2978
▁hanashiteru	-11.2978
katte	-11.2984
▁dekaketa	-11.2986
▁Light	-11.2989
▁Yukkuri	-11.2989
▁hato	-11.2989
▁issues	-11.2992
▁leads	-11.2993
▁shisha	-11.2996
▁direkutori	-11.2996
▁Kiita	-11.2996
▁chiku	-11.2996
▁makase	-11.3
kawa	-11.3001
▁painting	-11.3003
▁burning	-11.3005
right	-11.3011
ible	-11.3015
▁rose	-11.3017
10	-11.3017
▁balls	-11.3019
▁twenty	-11.3023
▁tadashikatta	-11.3024
▁hiroi	-11.3027
▁Seikou	-11.3028
▁hoken	-11.3029
▁tane	-11.3029
▁streets	-11.3035
▁kotei	-11.3037
▁desukedo	-11.3039
▁saitei	-11.3046
▁Head	-11.3047
▁include	-11.3048
rian	-11.305
ibun	-11.3053
▁sabi	-11.3054
▁proper	-11.3055
▁Travis	-11.3057
▁cheese	-11.3057
▁Onnanoko	-11.3057
▁tower	-11.3059
▁Himitsu	-11.306
▁tsukamaeru	-11.306
ijou	-11.3061
▁sins	-11.3061
▁linear	-11.3061
▁chousei	-11.3065
gg	-11.3067
▁kudashita	-11.3069
▁nonda	-11.3069
▁okotteru	-11.307
▁Kurea	-11.3074
ero	-11.3076
▁Eru	-11.3077
▁kiso	-11.3078
▁Haitte	-11.3087
▁rough	-11.3088
▁Eikoku	-11.309
▁cap	-11.3091
▁juugyouin	-11.3091
▁blew	-11.3091
▁cream	-11.3091
▁Thus	-11.3091
runara	-11.3092
▁joou	-11.3093
▁Jesse	-11.3093
ranakereba	-11.3093
▁Ushiro	-11.3094
▁chikoku	-11.3098
▁pakkeji	-11.3098
▁arimasenga	-11.3103
▁kaigou	-11.3106
▁r	-11.3108
1.	-11.3108
▁warai	-11.3109
rashiku	-11.311
▁Boru	-11.3112
▁imp	-11.3115
▁identify	-11.3116
▁families	-11.3125
▁slept	-11.3125
▁genius	-11.3125
▁victory	-11.3126
▁tanoshikatta	-11.3126
▁loan	-11.3127
▁Morning	-11.3128
▁tomaru	-11.3129
▁hurts	-11.3129
▁bell	-11.3135
▁motanai	-11.3138
gasu	-11.3145
▁okureru	-11.3148
▁Americans	-11.3151
▁doori	-11.3157
▁awesome	-11.316
▁eventually	-11.316
▁touched	-11.316
▁hatsumei	-11.316
▁gasu	-11.3162
▁kouritsu	-11.3163
rumu	-11.3165
ations	-11.3165
▁Tommy	-11.3166
▁east	-11.3167
kuru	-11.3167
▁mukatteru	-11.3169
awase	-11.3182
▁carrying	-11.3185
▁Ikutsu	-11.3186
▁trigger	-11.3187
▁rogu	-11.3187
▁heika	-11.3188
▁koutai	-11.3188
▁arimasendeshita	-11.3191
▁surveillance	-11.3194
▁zandaka	-11.3194
▁Harorudo	-11.3194
▁Simon	-11.3195
ft	-11.3196
▁bon	-11.3197
▁century	-11.3197
▁irarenai	-11.3206
▁shirasete	-11.3209
▁papers	-11.3213
▁guests	-11.3214
▁arashi	-11.322
▁paint	-11.3221
▁Kizu	-11.3224
▁metta	-11.3228
▁stack	-11.3229
▁zuibun	-11.3229
▁Riyuu	-11.3231
▁Kouun	-11.3234
▁sale	-11.3236
▁Uwa	-11.3236
▁rare	-11.3238
pt	-11.3238
▁concerning	-11.3238
▁pray	-11.3244
tteta	-11.3248
▁Ar	-11.325
▁Beru	-11.3253
▁Work	-11.3255
▁Nou	-11.3256
esu	-11.3259
▁pilot	-11.3264
▁Bengoshi	-11.3264
▁chest	-11.3264
▁ningyou	-11.3264
▁kyuuryou	-11.3267
▁Fucking	-11.327
▁hiza	-11.3271
▁tehai	-11.3271
▁Sari	-11.3272
doru	-11.3273
▁uses	-11.3278
chau	-11.3281
▁perform	-11.3282
▁fully	-11.3283
gura	-11.3286
tsuku	-11.3286
▁Nige	-11.3292
▁demon	-11.3293
▁yasashiku	-11.3298
nuke	-11.3299
▁gentleman	-11.3299
▁benri	-11.33
▁Miro	-11.33
▁hitokoto	-11.3301
▁Arisu	-11.3305
cent	-11.3305
▁bones	-11.3307
▁rusu	-11.3311
what	-11.3311
▁moves	-11.3313
▁levels	-11.3317
▁climb	-11.3317
▁chain	-11.3319
▁opening	-11.3319
▁dansu	-11.332
▁ute	-11.3322
pin	-11.3324
▁shiten	-11.3326
▁recent	-11.3331
▁z	-11.3332
▁Ladies	-11.3333
▁chocolate	-11.3333
▁equipment	-11.3333
▁website	-11.3333
▁Almost	-11.3333
▁nyuushu	-11.3334
▁yubiwa	-11.3335
▁Yari	-11.3337
▁custom	-11.3338
▁Rou	-11.3339
gh	-11.3339
▁sento	-11.3341
▁seigen	-11.3345
▁associated	-11.3347
ration	-11.3348
▁describe	-11.3349
▁im	-11.3351
chin	-11.3352
▁tsukawarete	-11.3352
▁sazuke	-11.3352
Why	-11.3353
▁daddy	-11.3353
katsu	-11.3354
▁knock	-11.3357
kyoku	-11.3357
▁douki	-11.3357
▁sotchi	-11.3361
▁cried	-11.3368
▁Ressha	-11.3369
▁objective	-11.337
▁gensoku	-11.337
▁Makkusu	-11.3374
▁Risa	-11.3381
sase	-11.3386
▁dig	-11.3386
▁Va	-11.3388
▁Omoi	-11.339
",	-11.3397
wareru	-11.3399
▁Shitai	-11.3401
▁Musa	-11.3402
▁mizuumi	-11.3404
▁izure	-11.3404
▁review	-11.3404
▁tsuzuite	-11.3404
▁disappointed	-11.3405
▁update	-11.3409
▁saikai	-11.341
fin	-11.3411
▁advanced	-11.342
wood	-11.3424
▁Jama	-11.3425
▁praise	-11.3427
seta	-11.343
▁Hijou	-11.3434
▁agents	-11.3435
▁conference	-11.3439
▁odoroki	-11.3439
▁liability	-11.3439
▁bangumi	-11.3439
▁miryokuteki	-11.3442
▁odd	-11.3442
▁koibito	-11.3444
▁State	-11.3446
▁jirei	-11.3446
▁chigaimasu	-11.3452
▁jiten	-11.3452
▁stronger	-11.3454
▁Chiisa	-11.3467
rieki	-11.3469
▁Thomas	-11.3474
▁sugosu	-11.3474
▁Fi	-11.3476
▁fingers	-11.3478
▁seisaku	-11.3479
▁kojinteki	-11.348
▁fallen	-11.3482
▁unbelievers	-11.3482
▁hachi	-11.3485
osu	-11.3485
oku	-11.3486
▁ringu	-11.3488
▁1.	-11.3489
▁delivered	-11.349
table	-11.3492
▁tatae	-11.3493
▁poison	-11.3494
▁Beth	-11.35
nti	-11.3502
▁Mira	-11.3504
▁talent	-11.3504
▁Shiru	-11.3504
ties	-11.3504
ttara	-11.3508
▁Olivia	-11.351
▁Totsuzen	-11.351
▁ooserareta	-11.351
▁okokoro	-11.351
▁motozuite	-11.351
▁Tsuini	-11.3511
▁suuhai	-11.3512
▁Jacob	-11.3512
fodo	-11.3513
▁wakarimashita	-11.3515
▁shinsei	-11.3518
ture	-11.3518
▁net	-11.352
▁Ana	-11.352
▁Th	-11.3524
kake	-11.3525
▁shinderu	-11.3526
▁hakobu	-11.3535
▁Gou	-11.354
▁majo	-11.354
▁awful	-11.3542
▁etc	-11.3544
▁education	-11.3544
light	-11.3546
▁Resurrection	-11.3546
▁communicate	-11.3546
▁sweetheart	-11.3546
▁hanasenai	-11.3546
▁kyodai	-11.3546
▁nezumi	-11.3546
▁Ura	-11.3547
nder	-11.3548
▁gr	-11.3549
▁ryuu	-11.3552
▁Water	-11.3552
▁sports	-11.3555
▁currently	-11.3556
rubekida	-11.3556
▁cameras	-11.356
house	-11.356
▁severe	-11.3562
▁kokoromi	-11.3565
kotsu	-11.3566
▁Kagaku	-11.3569
▁jiman	-11.3573
naikara	-11.3574
▁samu	-11.3578
▁configuration	-11.3582
▁international	-11.3582
▁Watson	-11.3582
▁Murphy	-11.3582
▁Torihiki	-11.3582
▁denied	-11.3582
▁Shikkari	-11.3582
▁Touzen	-11.3583
▁Hanase	-11.3583
▁Copy	-11.3584
hether	-11.3584
▁min	-11.3586
▁Jason	-11.3587
▁shirenaiga	-11.3588
▁required	-11.3592
▁insatsu	-11.3598
▁katsute	-11.36
0.	-11.36
▁Koru	-11.3601
▁ocha	-11.3604
▁ignore	-11.3605
▁prepare	-11.3606
▁Shitte	-11.3609
▁jijou	-11.3613
▁shindan	-11.3615
▁Absolutely	-11.3618
▁CIA	-11.3618
▁closing	-11.3618
▁museum	-11.3618
▁society	-11.3618
▁shoutotsu	-11.3618
▁darling	-11.3618
shimasu	-11.3618
▁raishuu	-11.3618
▁kakawaru	-11.3619
mashitaga	-11.3619
▁planned	-11.3619
▁purotto	-11.3619
▁kui	-11.362
▁Emiri	-11.3621
▁akero	-11.3623
▁Jiken	-11.3623
▁beside	-11.3626
mer	-11.3627
▁kimete	-11.3627
▁rude	-11.3629
▁pool	-11.3629
▁Mafi	-11.363
▁fed	-11.363
gari	-11.363
rimasu	-11.3632
▁shimon	-11.3633
geru	-11.3634
▁tana	-11.3635
era	-11.3635
▁Russian	-11.3639
▁arawareru	-11.3639
▁hanareru	-11.364
▁shinjiteru	-11.3642
eteru	-11.3643
▁fitting	-11.3648
▁robot	-11.3651
▁kakurete	-11.3653
▁Enough	-11.3654
▁injured	-11.3654
▁omedetou	-11.3654
▁bikkuri	-11.3654
areru	-11.3654
▁toire	-11.3655
▁yuubin	-11.3656
▁Mono	-11.3656
▁shio	-11.3658
▁demand	-11.3662
dora	-11.3662
▁Dean	-11.3663
▁saifu	-11.3664
▁seru	-11.3665
▁fukumu	-11.3665
▁communication	-11.3666
▁Kega	-11.3677
▁hoji	-11.368
▁chokume	-11.3681
▁wataru	-11.3681
▁itakara	-11.3683
▁Ere	-11.3683
▁wood	-11.3684
▁bara	-11.3686
▁Vo	-11.3687
▁anxious	-11.369
▁entrance	-11.369
▁struck	-11.369
▁toreningusetto	-11.369
▁ibu	-11.3691
▁Shinbun	-11.3693
▁karite	-11.3693
▁Iyaiya	-11.3693
▁PHP	-11.3693
▁kakudai	-11.3695
▁Atta	-11.3698
▁patients	-11.3698
▁Lee	-11.3698
▁circumstances	-11.3703
▁tenchi	-11.3704
▁naran	-11.3708
▁traveling	-11.3713
▁pants	-11.3714
▁roku	-11.3714
▁reduce	-11.372
▁kichou	-11.372
ip	-11.372
▁kaban	-11.3721
▁Damatte	-11.3722
▁sugi	-11.3723
▁leading	-11.3724
▁silver	-11.3726
▁unusual	-11.3726
▁occurred	-11.3726
▁shakuhou	-11.3727
▁omowareru	-11.3727
▁tetsudai	-11.3727
▁ketsudan	-11.3727
▁Officer	-11.3728
▁itterun	-11.3729
▁fukushuu	-11.3729
▁Nokori	-11.373
▁Walker	-11.373
▁keibu	-11.3732
▁soup	-11.3733
▁supply	-11.3739
lar	-11.3741
▁ee	-11.3744
▁core	-11.3744
▁oshieta	-11.3745
▁Seki	-11.3747
▁Tasu	-11.3749
ore	-11.375
▁Aitsura	-11.375
▁dattaga	-11.3757
cing	-11.3759
▁Under	-11.3762
▁Australia	-11.3763
▁delicious	-11.3763
▁stairs	-11.3763
▁toshokan	-11.3763
▁oozei	-11.3763
▁satisfied	-11.3763
▁Whose	-11.3764
▁Puro	-11.3766
▁Omoshiroi	-11.3766
▁drinks	-11.3766
▁yoyuu	-11.3767
▁Okusan	-11.3769
▁wire	-11.377
▁nomimono	-11.3772
▁classes	-11.3773
▁oko	-11.3775
▁Suku	-11.3776
▁shift	-11.3777
▁terrorist	-11.3777
▁harai	-11.378
▁Satan	-11.378
▁chii	-11.378
▁treasure	-11.3781
▁kagakusha	-11.3782
goro	-11.3783
▁shina	-11.3786
▁Buru	-11.3786
kenai	-11.3792
▁horrible	-11.3799
▁fukumarete	-11.38
▁Emily	-11.3801
▁shock	-11.3802
▁decisions	-11.3803
▁antei	-11.3804
▁yuuzai	-11.3804
▁windows	-11.3805
▁tomatte	-11.3806
▁item	-11.3807
▁Dekinai	-11.3812
▁ghost	-11.3814
▁holiday	-11.3814
▁shirazu	-11.3814
▁shinpo	-11.3816
▁meters	-11.3819
:00	-11.382
▁Aite	-11.3822
▁hanging	-11.3826
nshou	-11.3826
▁monogoto	-11.3828
uite	-11.3833
▁Truth	-11.3836
▁nozoite	-11.3836
▁appearance	-11.3836
▁Star	-11.3839
▁protection	-11.3839
▁servants	-11.384
▁ome	-11.3841
▁walls	-11.3844
▁fashion	-11.3846
▁sample	-11.3851
▁Aete	-11.3852
name	-11.3854
▁va	-11.3855
masuga	-11.3856
▁gomi	-11.3856
▁koji	-11.3857
▁prices	-11.3864
▁Kid	-11.3864
EN	-11.3865
oo	-11.3873
▁intelligence	-11.3873
▁ushinatte	-11.3873
vis	-11.3874
▁touroku	-11.3874
▁burokku	-11.3874
▁Joukyou	-11.3874
▁west	-11.3877
▁yuushuu	-11.3877
▁engaged	-11.3881
▁Uta	-11.3882
▁dick	-11.3885
▁respond	-11.3894
▁hiita	-11.3894
▁hajimari	-11.3898
▁actions	-11.3898
Ma	-11.3902
▁iryou	-11.3911
▁li	-11.3912
▁satsujinhan	-11.3913
vy	-11.3913
▁hanzaisha	-11.3914
▁misuta	-11.3915
reki	-11.3915
▁variables	-11.3917
▁Far	-11.3918
▁latest	-11.3918
▁Enter	-11.3919
▁developed	-11.3922
▁yobarete	-11.3923
▁Kabe	-11.3923
▁dekimashita	-11.3924
▁vehicle	-11.3926
▁Though	-11.3926
▁End	-11.3927
▁guest	-11.3927
▁predict	-11.3928
▁arunara	-11.3929
▁souls	-11.393
▁charges	-11.3932
shuku	-11.3933
▁defined	-11.3933
▁loop	-11.3935
▁ichiji	-11.3936
▁ukeire	-11.3936
▁gin	-11.3937
▁dougu	-11.3938
▁Tanin	-11.3941
▁fushinjinsha	-11.3942
▁ugoite	-11.3946
So	-11.3946
▁transport	-11.3947
▁favour	-11.3947
▁competition	-11.3947
▁creating	-11.3947
▁monkey	-11.3948
▁takasa	-11.3952
▁tomatta	-11.3952
▁nigete	-11.3956
▁Billy	-11.3957
▁Bar	-11.3958
▁Step	-11.3963
ice	-11.3968
▁users	-11.3971
ged	-11.3974
▁Furi	-11.3975
▁dump	-11.3978
eri	-11.3979
rushi	-11.398
▁manner	-11.3981
shatachi	-11.3981
▁angle	-11.3982
▁monku	-11.3983
▁kurun	-11.3983
▁Omedetou	-11.3985
▁ookami	-11.3985
▁Akachan	-11.3985
▁Senshuu	-11.3986
▁baggu	-11.3988
ama	-11.3989
▁claim	-11.3995
▁kashi	-11.3997
kusei	-11.4001
▁shitain	-11.4001
▁Reddo	-11.4001
▁kaikei	-11.4006
▁Tsuku	-11.401
▁Kekka	-11.4011
▁seijou	-11.4015
haku	-11.402
▁comfort	-11.4021
▁April	-11.4022
▁ibento	-11.4022
▁automatically	-11.4022
▁korose	-11.4024
▁Oyaji	-11.4025
▁owner	-11.4026
▁shinjin	-11.4028
▁miete	-11.4029
▁koshi	-11.4032
ryo	-11.4033
▁entirely	-11.4034
kushon	-11.4035
jutsu	-11.4036
▁atsume	-11.4038
nami	-11.4044
▁gang	-11.4045
▁sunderu	-11.4048
▁kusa	-11.4053
▁Pre	-11.4054
port	-11.4055
▁Might	-11.4057
▁gokai	-11.4058
▁Spanish	-11.406
▁description	-11.406
▁explosion	-11.406
▁platform	-11.406
▁curious	-11.406
▁grass	-11.406
▁Ginkou	-11.406
▁fence	-11.4061
▁pride	-11.4062
▁keishiki	-11.4062
▁buried	-11.4064
▁kora	-11.4064
▁nakunatte	-11.4066
▁neural	-11.4068
masho	-11.4068
▁thirty	-11.4071
▁convinced	-11.4071
▁hausu	-11.4076
▁thoughts	-11.4081
▁Hajime	-11.4084
▁checking	-11.4085
▁settle	-11.4085
▁punish	-11.409
▁ippan	-11.4091
▁Force	-11.4091
▁sofa	-11.4091
▁omoukedo	-11.4091
▁jealous	-11.4097
▁Night	-11.4098
▁dainashi	-11.4098
▁patience	-11.4098
▁Minori	-11.4099
ira	-11.4101
▁folks	-11.4105
▁picking	-11.4105
▁rope	-11.4112
▁Natsu	-11.4112
▁trap	-11.4114
▁noboru	-11.4114
▁expert	-11.4116
▁individual	-11.4116
▁kuzu	-11.412
chigai	-11.4123
▁keshi	-11.4124
field	-11.4124
▁Stu	-11.4126
▁placed	-11.4126
tate	-11.4128
▁nasareta	-11.4129
▁marks	-11.4129
▁pie	-11.4131
isha	-11.4132
▁moushide	-11.4134
▁Konpyuta	-11.4135
▁Security	-11.4135
▁Otagai	-11.4135
▁warrant	-11.4135
▁moraou	-11.4135
▁shoubai	-11.4137
▁Saba	-11.4137
kyu	-11.4137
▁rida	-11.414
▁rice	-11.4141
▁shitetan	-11.4142
▁Tokui	-11.4143
▁sisters	-11.4143
▁reality	-11.4143
ire	-11.4148
gatte	-11.4151
▁okosu	-11.4153
▁quarter	-11.4155
▁facts	-11.4158
▁served	-11.4159
ig	-11.416
▁dispute	-11.4161
▁invite	-11.4161
▁sakeru	-11.4168
▁Scott	-11.417
▁esa	-11.4173
▁yellow	-11.4173
▁Kusuri	-11.4174
kuji	-11.4174
▁tsukaikata	-11.4175
▁kongo	-11.4175
▁kaizen	-11.4182
mori	-11.4184
▁saishin	-11.4185
▁Rushi	-11.4188
▁counter	-11.419
▁drawing	-11.4192
deta	-11.4196
kya	-11.4196
fukujuu	-11.4201
▁mirareru	-11.4208
▁akari	-11.421
▁Relax	-11.4211
▁brilliant	-11.4211
▁rajio	-11.4211
▁kurereba	-11.4211
▁Anybody	-11.4211
▁chigatta	-11.4212
▁fi	-11.4213
▁zehi	-11.422
▁omaera	-11.4221
▁colors	-11.4221
▁requires	-11.4223
▁oshite	-11.4223
▁boring	-11.4224
▁Best	-11.4224
▁Ed	-11.4225
▁artist	-11.4226
▁sazuketa	-11.4227
▁doro	-11.4229
▁inakereba	-11.4231
▁saido	-11.4235
▁tooi	-11.4235
▁kinda	-11.4237
Allah	-11.4237
ise	-11.4241
▁taishita	-11.4245
▁effective	-11.4247
▁Unfortunately	-11.425
▁industry	-11.425
▁jiku	-11.425
▁contains	-11.4251
▁Chikara	-11.4253
▁utareta	-11.4253
▁Uncle	-11.4254
▁passing	-11.4254
▁midori	-11.4256
▁higashi	-11.4256
▁kurasuta	-11.4257
seba	-11.4259
▁Ever	-11.426
▁Umi	-11.4262
▁nainara	-11.4267
▁getto	-11.4269
▁kiete	-11.428
▁kurenakatta	-11.4282
▁gate	-11.4282
▁atashi	-11.4283
▁benefits	-11.4288
▁Colonel	-11.4288
▁Sorosoro	-11.4288
▁kabunushi	-11.4288
▁pardon	-11.4288
▁Burodi	-11.4289
▁teikoku	-11.4289
wanai	-11.4289
▁Way	-11.4289
▁Gakusei	-11.429
▁Prev	-11.4292
▁hizuke	-11.4293
▁Rikku	-11.4295
▁agatte	-11.4296
▁defense	-11.4297
▁kaishuu	-11.4298
▁kuwaete	-11.4302
▁Domu	-11.4303
lia	-11.4307
▁tarinai	-11.4307
▁Nope	-11.4311
▁Kutsu	-11.4316
▁Fo	-11.4318
▁Kangaete	-11.4321
▁flu	-11.4321
▁tour	-11.4322
▁reports	-11.4323
▁Aah	-11.4324
▁yasai	-11.4326
▁daihyou	-11.4329
▁sugurete	-11.4331
rida	-11.4336
▁chouki	-11.4337
▁kyouchou	-11.4338
▁expenses	-11.4339
▁shinshi	-11.4347
▁June	-11.4348
▁disappear	-11.4349
▁sakki	-11.4356
▁Prince	-11.436
bashi	-11.4363
▁director	-11.4364
▁issai	-11.4364
▁insurance	-11.4366
▁Eddie	-11.4366
▁poet	-11.4367
▁sutte	-11.4371
▁Julia	-11.4372
▁shinkoku	-11.4372
▁hunting	-11.4374
▁critical	-11.4375
▁kaiseki	-11.4375
▁tsunagari	-11.4376
jji	-11.4382
▁tsukareta	-11.4384
▁aketa	-11.4388
▁aim	-11.4389
▁determine	-11.4396
▁shouchi	-11.4397
▁tag	-11.4397
▁shinagara	-11.4397
ggu	-11.4404
▁Apparently	-11.4404
▁appropriate	-11.4404
▁manifest	-11.4404
▁mitsukaranai	-11.4405
▁computers	-11.4405
▁hametsu	-11.4406
▁enzetsu	-11.4407
▁michibiku	-11.4411
▁refer	-11.4411
▁doraibu	-11.4412
▁reference	-11.4413
▁discussed	-11.4417
▁ete	-11.4419
▁Ad	-11.442
▁confirm	-11.4427
▁beg	-11.4427
▁badly	-11.4428
▁nuts	-11.443
▁offered	-11.4431
riki	-11.4438
▁hung	-11.4439
▁Second	-11.4443
▁Richard	-11.4444
▁Number	-11.4444
▁Hereafter	-11.4444
kuto	-11.4445
▁Having	-11.4446
shaku	-11.4446
▁hakonde	-11.4447
▁toshiue	-11.4448
ified	-11.445
▁Basho	-11.4452
tcha	-11.4455
▁yasui	-11.4458
▁menu	-11.4459
▁Remove	-11.4461
▁Karada	-11.4461
RA	-11.4465
▁Thought	-11.4466
etsu	-11.4468
▁gather	-11.4469
LE	-11.447
▁shoulder	-11.4471
20	-11.4475
bar	-11.4476
fl	-11.4481
▁gyo	-11.4482
▁haba	-11.4483
▁silly	-11.4483
▁ocean	-11.4483
▁score	-11.4483
▁shakkin	-11.4483
▁inori	-11.4483
▁tedasuke	-11.4484
ika	-11.4484
▁koukuu	-11.4484
▁Oki	-11.4484
▁Gazou	-11.4485
▁Pete	-11.4486
▁shimaimashita	-11.4489
▁Sute	-11.4489
▁refused	-11.4494
▁Heika	-11.4495
▁spare	-11.4496
▁Eeto	-11.45
lon	-11.4502
list	-11.4505
▁inakute	-11.4505
▁addition	-11.4508
▁okoshite	-11.451
▁prisoner	-11.4518
▁Rome	-11.4519
▁negai	-11.4519
▁Messeji	-11.4522
▁eiyuu	-11.4523
▁Change	-11.4523
▁Jiyuu	-11.4524
▁memories	-11.4524
▁Inochi	-11.4524
▁tatanai	-11.4525
▁follows	-11.4526
ppoi	-11.4528
▁futta	-11.4534
▁yareru	-11.4536
▁represent	-11.454
▁mouse	-11.454
▁stealing	-11.454
▁arimasuga	-11.4543
▁giseisha	-11.4544
▁negotiation	-11.4548
▁Cor	-11.4549
▁kuretara	-11.4551
▁rush	-11.4553
deru	-11.4554
▁launch	-11.4554
ssen	-11.4556
AL	-11.4558
▁Wood	-11.4559
▁sunda	-11.4559
▁mental	-11.4561
▁Oshi	-11.4561
▁exciting	-11.4562
▁sesshon	-11.4562
▁ayamachi	-11.4562
▁nuclear	-11.4562
▁zasshi	-11.4562
▁Rusu	-11.4563
▁shuushuu	-11.4565
▁Doc	-11.4566
▁employees	-11.4566
▁shuhou	-11.4566
▁muite	-11.4568
▁Kubi	-11.4568
▁kaibutsu	-11.4571
▁videos	-11.4572
▁burakku	-11.4573
▁hashiri	-11.4575
▁partners	-11.4576
mawashi	-11.4576
sun	-11.4577
▁tensai	-11.4579
▁makasete	-11.4581
▁ataerareru	-11.4581
▁pretend	-11.4585
▁supu	-11.4586
▁sacrifice	-11.4593
▁Director	-11.4598
pping	-11.4599
kushi	-11.4601
▁Koto	-11.4601
▁burden	-11.4601
▁elevator	-11.4601
▁mirror	-11.4601
▁opposite	-11.4601
▁drove	-11.4601
▁getsuyou	-11.4601
▁kuwashii	-11.4602
▁poketto	-11.4602
▁touhyou	-11.4603
▁guro	-11.4603
▁mochiite	-11.4605
▁kamaimasen	-11.4608
▁models	-11.4611
▁Kyouryoku	-11.4615
▁par	-11.4616
▁Kaji	-11.462
▁sp	-11.462
▁inaka	-11.4622
▁ikuto	-11.4623
▁crimes	-11.4625
▁challenge	-11.4628
▁jobs	-11.4629
▁Wall	-11.463
▁kakka	-11.4632
▁maintain	-11.4634
▁yamu	-11.4636
▁prints	-11.464
▁guitar	-11.4641
▁flash	-11.4641
▁tonikaku	-11.4641
▁assistant	-11.4642
▁memo	-11.4642
▁Izure	-11.465
▁sutairu	-11.4651
▁futo	-11.4654
iti	-11.4655
▁Misu	-11.4658
▁Calm	-11.4659
bra	-11.4659
▁fukuro	-11.4663
ab	-11.4664
▁fuel	-11.4666
▁convince	-11.4669
▁Iru	-11.4674
▁custody	-11.4681
▁unique	-11.4681
▁nusumareta	-11.4681
▁tannaru	-11.4681
▁shukufuku	-11.4682
▁Danieru	-11.4682
▁Saiaku	-11.4682
▁lonely	-11.4682
▁shujin	-11.4684
▁accused	-11.4684
▁minakatta	-11.4685
▁require	-11.4692
▁tsuuka	-11.4693
▁revelations	-11.4693
1,	-11.4695
▁kya	-11.4702
ake	-11.4704
▁removed	-11.4705
▁kouman	-11.4707
oro	-11.4709
▁channel	-11.4709
CH	-11.4713
▁saka	-11.4719
▁Shinai	-11.472
▁ashamed	-11.4721
▁kizahashi	-11.4721
▁Forgive	-11.4721
▁thick	-11.4722
▁irudeshou	-11.4722
▁suisoku	-11.4723
yagatta	-11.4725
▁flows	-11.4727
▁Mushi	-11.4727
▁Germany	-11.4728
▁unable	-11.4731
▁accounting	-11.4733
rashi	-11.4742
▁implement	-11.4743
▁tasuketa	-11.4747
can	-11.4753
ranakute	-11.4754
yori	-11.4754
▁factor	-11.4755
▁tied	-11.4757
▁Neither	-11.4762
▁creation	-11.4762
▁programming	-11.4762
▁500	-11.4762
▁makoto	-11.4762
▁baransu	-11.4762
▁inventory	-11.4762
▁Kevin	-11.4762
▁Kekkou	-11.4762
▁theater	-11.4763
shinkyou	-11.4763
▁sadamerareta	-11.4763
▁sekkusu	-11.4765
▁pondo	-11.4765
▁backup	-11.4767
▁hunt	-11.477
▁ochitsuke	-11.477
▁wherever	-11.4771
▁warned	-11.4772
kane	-11.4776
▁policeman	-11.4776
▁0.	-11.4776
▁Daiji	-11.4782
▁hahasan	-11.4782
boku	-11.4783
oh	-11.4783
▁improve	-11.4787
▁oeta	-11.4787
▁dies	-11.4788
▁narrow	-11.4789
▁tsui	-11.479
▁mood	-11.4791
▁article	-11.4791
▁chari	-11.4792
▁Sumisu	-11.4802
mare	-11.4802
▁attorney	-11.4802
▁dancing	-11.4802
▁Atchi	-11.4803
▁naide	-11.4803
▁ubatta	-11.4803
▁pig	-11.4804
▁Haya	-11.4812
▁fairly	-11.4814
ugh	-11.4814
▁narabina	-11.4816
▁ukeireru	-11.482
▁Yasu	-11.4825
▁kashu	-11.4827
law	-11.4827
▁mato	-11.4832
▁circle	-11.4832
sute	-11.4833
uh	-11.4834
▁bat	-11.4835
▁Said	-11.4839
▁bouryoku	-11.4841
raseru	-11.4841
▁silence	-11.4843
▁ressun	-11.4843
▁Howaito	-11.4843
▁massugu	-11.4843
▁kanashimi	-11.4844
▁suraido	-11.4844
▁Furo	-11.4845
▁nakunaru	-11.4845
▁Byouki	-11.4847
biki	-11.4847
▁speaker	-11.4849
▁operate	-11.4849
▁Rikai	-11.485
▁nichichuu	-11.4852
▁iie	-11.4857
motsu	-11.4858
nten	-11.4858
▁journal	-11.4861
▁prince	-11.4862
▁Sousa	-11.4863
▁Won	-11.4868
erareta	-11.4875
▁Hiki	-11.4876
▁meiyo	-11.4876
cle	-11.4879
▁install	-11.4879
set	-11.488
▁nesshin	-11.4881
til	-11.4882
▁okiteru	-11.4882
▁December	-11.4884
▁School	-11.4884
▁economy	-11.4884
▁flesh	-11.4884
▁clue	-11.4884
▁naidesho	-11.4885
▁egg	-11.4889
▁juudai	-11.489
▁fourth	-11.4896
▁senshuu	-11.4897
▁suri	-11.4898
car	-11.49
▁anti	-11.4904
▁Edo	-11.4905
board	-11.4905
▁crossed	-11.4906
▁depend	-11.4909
▁segment	-11.4914
▁Aw	-11.4915
ap	-11.4917
▁gosa	-11.4921
▁Choushi	-11.4923
▁inter	-11.4924
▁Honmono	-11.4926
▁handsome	-11.4927
▁Johnny	-11.4927
▁collection	-11.4928
▁Zo	-11.4931
▁fushinsha	-11.4932
▁Nannin	-11.4933
▁Din	-11.4945
gae	-11.4947
▁rakka	-11.4949
▁cleared	-11.4952
sanakereba	-11.4952
▁Iikara	-11.4952
▁refuse	-11.4954
▁Misuta	-11.4955
rn	-11.4956
▁border	-11.4957
pp	-11.4957
▁gei	-11.4958
gashi	-11.4958
▁mis	-11.496
kui	-11.496
▁adobaisu	-11.4966
▁ordinary	-11.4966
▁bedroom	-11.4966
▁series	-11.4967
▁ninshin	-11.4968
▁Other	-11.4969
▁author	-11.497
▁chippu	-11.497
▁Mottomo	-11.4971
▁okoshita	-11.4973
▁fond	-11.498
▁Joji	-11.4986
ments	-11.4986
▁kikimashita	-11.4988
▁shouki	-11.499
wai	-11.499
▁Tema	-11.4994
▁Taka	-11.4994
▁apples	-11.4994
▁Supa	-11.4995
kanai	-11.4998
▁ikanakatta	-11.5
▁yuuyo	-11.5001
▁eh	-11.5006
▁flag	-11.5007
▁Sayonara	-11.5007
▁campaign	-11.5007
▁heisa	-11.5008
▁Tenki	-11.5009
▁seizou	-11.5012
rr	-11.5012
▁exposed	-11.5014
▁senkei	-11.5014
▁particularly	-11.5017
OR	-11.5018
▁appeared	-11.5019
▁sukutte	-11.502
▁iri	-11.5028
▁kuraku	-11.5031
pped	-11.5032
2.	-11.5036
▁cloud	-11.5037
▁culture	-11.5041
▁rando	-11.5041
▁Iro	-11.5044
▁wheel	-11.5044
▁Eva	-11.5045
▁Shisutemu	-11.5049
▁instance	-11.5049
▁tunnel	-11.5049
▁Zenzen	-11.505
▁koru	-11.5055
kaeru	-11.5059
▁honyaku	-11.506
▁Kanshi	-11.5065
▁toukei	-11.5066
ndi	-11.5074
▁suji	-11.5076
▁omoun	-11.5078
▁bukai	-11.5079
▁repair	-11.5083
▁narenai	-11.5084
▁kouei	-11.5086
▁rely	-11.5087
tsume	-11.5088
▁Raishuu	-11.5091
▁Konbanha	-11.5091
▁bijin	-11.5092
▁Kanzen	-11.5093
▁confused	-11.5093
▁Patrick	-11.5094
▁agreement	-11.5094
▁cleaning	-11.5095
▁Kenkou	-11.5097
▁causes	-11.5099
▁hajimeyou	-11.5099
▁generally	-11.5099
▁Roy	-11.51
use	-11.5102
▁Read	-11.5103
▁hiritsu	-11.5103
▁Per	-11.5104
▁additional	-11.5105
▁Risuto	-11.5107
▁iikedo	-11.5109
ado	-11.5115
taga	-11.5116
kago	-11.5117
asan	-11.5119
nton	-11.5119
],	-11.5121
▁Los	-11.5121
▁Ude	-11.5122
from	-11.5123
▁reveal	-11.5125
▁chiisaku	-11.5127
wake	-11.5128
▁ketsuro	-11.5128
rando	-11.5129
▁sosen	-11.5131
▁Kanpeki	-11.5132
▁Yesterday	-11.5132
▁abandoned	-11.5136
▁divided	-11.5139
▁haikei	-11.514
▁ria	-11.5141
box	-11.5143
▁scare	-11.5143
▁aruki	-11.5144
▁shikei	-11.5147
▁ochiru	-11.515
▁Kyoumi	-11.5156
byu	-11.5163
kusai	-11.5165
▁bare	-11.5168
Who	-11.5169
hu	-11.517
▁KDE	-11.5174
▁oshaberi	-11.5174
▁violence	-11.5174
▁Left	-11.5174
▁Also	-11.5177
▁investing	-11.5178
▁reasonable	-11.518
ok	-11.5181
▁tsuujite	-11.5181
▁scar	-11.5181
▁busu	-11.5182
▁yuusen	-11.5187
▁tanoshiku	-11.5187
▁wishes	-11.5187
▁Oboete	-11.5188
▁script	-11.5192
▁omaetachi	-11.5194
▁Nancy	-11.5194
▁dekin	-11.5195
▁kanashii	-11.5196
▁toppu	-11.5198
▁okou	-11.52
▁tickets	-11.52
gy	-11.5201
ye	-11.5203
▁suteta	-11.5203
▁brief	-11.5204
ura	-11.5213
gle	-11.5217
▁Tsukihi	-11.5218
▁Ze	-11.5218
▁atsumete	-11.5219
▁reply	-11.5219
▁kakuchou	-11.522
▁Believe	-11.522
▁Lisa	-11.522
▁Senchou	-11.5221
▁eisei	-11.5222
▁supido	-11.5223
▁senkou	-11.5224
with	-11.5227
▁seifuku	-11.5231
▁Souzou	-11.5232
▁Pat	-11.5234
▁jutsu	-11.5235
▁houtei	-11.5236
▁listened	-11.5237
▁seme	-11.5238
ight	-11.5238
▁Susan	-11.524
▁koukei	-11.524
▁Roman	-11.5241
tsuita	-11.5243
▁degree	-11.5244
▁concept	-11.5246
▁bug	-11.5252
▁magazine	-11.5253
▁scientist	-11.5253
▁iwareru	-11.5253
bia	-11.5256
nko	-11.5256
▁yorokobu	-11.5259
▁surgery	-11.5259
▁juice	-11.5259
▁machigatta	-11.5259
▁yokereba	-11.526
▁toilet	-11.526
▁noujou	-11.5261
▁shugisha	-11.5262
▁kippu	-11.5262
▁ikanakereba	-11.5263
▁nosete	-11.5263
▁iuto	-11.5263
▁pasuwado	-11.5265
▁shachou	-11.5267
▁osen	-11.5269
▁muzukashiku	-11.527
▁Kowai	-11.5272
▁kumiawase	-11.5273
▁Indo	-11.5274
zon	-11.5278
▁hataraiteru	-11.5284
neki	-11.5284
▁trained	-11.5284
rude	-11.5285
▁megane	-11.5286
tatoi	-11.5287
▁guarantee	-11.5289
▁shousan	-11.5292
rch	-11.5298
▁Nante	-11.53
▁Human	-11.53
▁although	-11.5301
▁flood	-11.5301
▁kingdom	-11.5301
▁brush	-11.5301
▁foolish	-11.5302
▁Torakku	-11.5302
▁kurashite	-11.5302
▁kinzoku	-11.5303
▁Ikite	-11.5303
▁scary	-11.5305
▁bleeding	-11.5305
▁applications	-11.5305
▁Kankei	-11.5306
▁teiji	-11.5306
▁zenshin	-11.5307
▁wives	-11.5308
▁butter	-11.5309
▁clouds	-11.5309
ot	-11.531
▁Itai	-11.5311
▁sand	-11.5315
▁laughed	-11.5315
▁shaberu	-11.5316
▁fuyou	-11.5317
▁Oko	-11.5322
▁actor	-11.5323
▁tracking	-11.5328
▁argue	-11.5332
▁parking	-11.5332
▁wasurenai	-11.5333
▁Chu	-11.5336
▁compare	-11.5342
▁absence	-11.5344
▁rabbit	-11.5344
▁studies	-11.5344
▁sofutoea	-11.5344
▁Washinton	-11.5344
▁solid	-11.5344
▁grid	-11.5344
▁shokumotsu	-11.5344
▁ketten	-11.5344
▁Shoot	-11.5345
▁fever	-11.5345
▁Hashi	-11.5349
▁teikou	-11.535
▁erabi	-11.5353
▁denai	-11.5354
▁deeply	-11.5355
▁Furui	-11.5355
lf	-11.5356
▁nasu	-11.5356
▁groups	-11.536
▁uka	-11.536
▁Raku	-11.5364
▁taisa	-11.5369
▁okitai	-11.5369
▁Dead	-11.537
▁kakkou	-11.5375
▁Steve	-11.5377
▁tafu	-11.5379
▁haki	-11.5381
▁kaiko	-11.5382
▁kizutsukeru	-11.5383
▁aruita	-11.5385
▁Israel	-11.5386
▁Shokuji	-11.5386
▁acts	-11.5387
▁possibility	-11.5387
▁committee	-11.5387
▁entries	-11.5387
▁nusumi	-11.5387
▁renpou	-11.5388
▁alert	-11.539
▁Blue	-11.5391
▁witnesses	-11.5391
▁shitakatta	-11.5393
gin	-11.5393
▁robotto	-11.5394
▁throughout	-11.5394
▁kangaenai	-11.5401
▁remained	-11.5404
▁Korosu	-11.5407
▁okasu	-11.541
▁yaranai	-11.5411
tz	-11.5413
▁Atashi	-11.5415
▁Heiki	-11.5416
2,	-11.5422
▁estimate	-11.5422
▁enki	-11.5424
▁Shinji	-11.5424
▁Chicago	-11.543
▁violent	-11.543
▁brown	-11.543
▁Mitsuketa	-11.543
▁Comp	-11.5433
▁Beddo	-11.5434
▁independent	-11.5436
▁tojite	-11.5439
▁Oide	-11.5441
▁woke	-11.5443
▁settled	-11.5444
▁Juuyou	-11.5447
zetsu	-11.5449
▁shy	-11.545
▁difficulty	-11.5451
ology	-11.5454
▁photos	-11.5457
▁Cu	-11.5462
▁Hard	-11.5462
▁pai	-11.5463
wi	-11.5464
▁Eh	-11.5465
▁miseta	-11.5465
▁pulling	-11.5466
▁sonaete	-11.5468
bit	-11.547
▁senta	-11.5473
▁mystery	-11.5473
▁specified	-11.5473
▁tanonde	-11.5473
▁shiharau	-11.5473
▁Tokubetsu	-11.5473
▁Ryokou	-11.5473
▁Snow	-11.5474
baru	-11.5474
ile	-11.5475
▁Seikaku	-11.5476
▁yakkai	-11.5478
▁filter	-11.5478
▁risoku	-11.5478
▁parties	-11.5479
▁seijitsu	-11.5481
▁gakkari	-11.5482
nikui	-11.5482
▁Unten	-11.5483
▁motometa	-11.5486
kase	-11.5487
▁personally	-11.5488
▁Shoujo	-11.5489
▁goyou	-11.5492
▁kicked	-11.5492
▁CD	-11.5492
▁Tsuite	-11.5493
sanaide	-11.5494
▁Oji	-11.55
▁nemu	-11.5502
▁Soon	-11.5506
▁earn	-11.5509
▁grant	-11.5511
aka	-11.5512
▁horses	-11.5514
kusa	-11.5514
▁knees	-11.5515
▁spending	-11.5515
raremashita	-11.5515
▁specify	-11.5517
▁okonomi	-11.5517
▁native	-11.5518
▁atatakai	-11.5518
▁itoko	-11.552
▁shijin	-11.552
▁generation	-11.5521
▁iikata	-11.5521
▁kyuukei	-11.5521
▁hatten	-11.5534
▁sec	-11.5535
▁Bro	-11.5543
▁kanau	-11.5547
ory	-11.5548
wise	-11.555
ES	-11.5554
ED	-11.5557
▁otta	-11.556
▁Kyle	-11.556
▁depreciation	-11.556
▁torimodosu	-11.556
▁wisdom	-11.556
▁oyogu	-11.556
▁Special	-11.556
▁football	-11.5561
▁Kotoba	-11.5564
▁giant	-11.5564
▁modosu	-11.5565
▁chousen	-11.5566
▁confirmed	-11.5568
rie	-11.5568
▁kuruto	-11.557
▁kuri	-11.557
▁temper	-11.5571
▁developing	-11.5574
▁jumped	-11.5577
▁characters	-11.5577
▁Real	-11.5579
▁maki	-11.5584
▁masuta	-11.5585
▁kyougi	-11.5587
▁Edi	-11.5588
▁shoukyaku	-11.5597
▁effects	-11.5602
▁rumor	-11.5604
▁kichinto	-11.5605
▁renzoku	-11.5605
▁tsuihou	-11.5605
gged	-11.5605
▁kureba	-11.5605
▁butsu	-11.5605
ruzu	-11.5607
ea	-11.5609
▁Tanaka	-11.5612
▁Pharaoh	-11.5614
lation	-11.5617
▁Being	-11.5617
▁helpful	-11.5618
▁seijika	-11.5619
▁comp	-11.5621
▁kuremashita	-11.5624
kiri	-11.5627
▁survived	-11.5627
dingu	-11.5628
▁chat	-11.5631
▁kakure	-11.5633
▁explained	-11.5635
▁odoroku	-11.5637
und	-11.5639
▁Mimi	-11.564
▁karita	-11.5643
our	-11.5648
▁kuraianto	-11.5648
▁Kariforunia	-11.5648
▁plate	-11.5648
▁pencil	-11.5648
kuri	-11.565
▁Year	-11.5652
▁shokku	-11.5653
rikku	-11.5654
▁oyogi	-11.5654
ati	-11.5656
▁shouten	-11.5657
▁mouke	-11.5665
▁oru	-11.5665
▁kokyou	-11.5667
▁shitete	-11.5667
▁saisei	-11.5671
▁Tomi	-11.5673
▁machines	-11.5674
▁kaigo	-11.5677
▁believes	-11.5678
▁divorce	-11.568
▁dekitara	-11.5683
▁kakutoku	-11.5686
▁desert	-11.5686
▁Kukki	-11.5687
▁ratio	-11.5688
▁spy	-11.5688
▁Dana	-11.5692
▁University	-11.5693
▁Washington	-11.5693
▁stake	-11.5693
▁investment	-11.5694
▁tsuge	-11.5696
▁tomero	-11.57
▁arudeshou	-11.5702
▁dozen	-11.5703
▁Sta	-11.5706
▁compared	-11.5708
▁Play	-11.571
her	-11.571
▁released	-11.5712
▁meiji	-11.5721
▁hire	-11.5721
▁Know	-11.5725
▁muchi	-11.5729
▁omegum	-11.573
▁kudaru	-11.573
▁nuki	-11.5731
▁grace	-11.5732
TH	-11.5735
▁baku	-11.5736
▁Tabe	-11.5737
▁ugly	-11.5737
shioite	-11.5738
▁shokubutsu	-11.5738
▁Hoteru	-11.574
▁kaijo	-11.574
▁haaku	-11.574
▁saitekika	-11.5741
▁hook	-11.5741
▁kawaranai	-11.5742
▁toukou	-11.5742
▁plays	-11.5744
▁Kurisumasu	-11.5744
▁omochi	-11.5744
ened	-11.5746
▁intended	-11.5747
▁choukan	-11.5749
▁tazuneru	-11.575
▁Burakku	-11.575
▁batsu	-11.5752
kareta	-11.5753
▁michibikareru	-11.5755
▁kakugo	-11.5756
▁spa	-11.5757
▁Tora	-11.5759
▁nigate	-11.5763
▁Tachi	-11.5764
▁nyuu	-11.5766
▁tenkai	-11.5767
▁observe	-11.577
▁notta	-11.5771
▁kaere	-11.5778
▁lu	-11.578
▁toast	-11.578
▁muke	-11.5781
ball	-11.5781
▁invitation	-11.5782
▁reputation	-11.5782
▁salary	-11.5782
▁sequence	-11.5782
▁yutaka	-11.5782
▁believing	-11.5782
▁Kanada	-11.5782
▁mohaya	-11.5782
▁Oribia	-11.5782
▁protecting	-11.5782
▁insist	-11.5784
▁jinmon	-11.5784
▁slightly	-11.5784
▁title	-11.5789
▁internal	-11.5789
▁arawashite	-11.5794
▁yoreba	-11.5794
▁Wise	-11.5795
takute	-11.5797
▁Toori	-11.5797
▁bra	-11.58
kasete	-11.5801
oto	-11.5804
▁shimatsu	-11.5805
▁IN	-11.5808
▁trail	-11.5818
▁clients	-11.5824
▁tsukare	-11.5826
▁Afurika	-11.5826
▁attitude	-11.5826
▁Tyler	-11.5827
▁unknown	-11.5827
▁drag	-11.5828
▁sue	-11.5828
ima	-11.5829
▁Nyu	-11.5829
shed	-11.583
▁omouga	-11.583
▁kandou	-11.5833
▁bumon	-11.5833
▁kikasete	-11.5834
▁Kado	-11.5834
bekija	-11.5836
▁Mirai	-11.5844
▁outta	-11.5846
..."	-11.5853
▁Mac	-11.5854
▁negatte	-11.5856
waru	-11.5857
cker	-11.5858
▁Dis	-11.5861
saru	-11.5861
▁reject	-11.5861
term	-11.5863
▁puru	-11.5864
▁yose	-11.5866
▁Aki	-11.5867
wasu	-11.5867
▁lessons	-11.587
▁derivative	-11.5871
▁Alec	-11.5872
▁moshikuha	-11.5872
▁headache	-11.5872
▁hatsugen	-11.5873
▁uniform	-11.5874
▁neighbor	-11.5875
▁sagashita	-11.5875
toite	-11.5875
▁Tobi	-11.5876
▁kinko	-11.5877
▁terror	-11.588
▁knocked	-11.5881
keba	-11.5883
▁kenryoku	-11.5883
▁kyuujo	-11.5884
kkyuu	-11.5886
▁90	-11.5887
▁Jedi	-11.5887
▁stream	-11.5889
▁Shinde	-11.5891
▁Tsui	-11.5892
▁ote	-11.5893
stro	-11.5899
rc	-11.5907
▁douzen	-11.5907
▁Taiho	-11.591
ium	-11.5911
▁California	-11.5917
▁motherfucker	-11.5917
▁Aruiha	-11.5917
▁assault	-11.5917
▁thus	-11.5917
▁cities	-11.5917
▁raberu	-11.5917
▁Sura	-11.5917
▁Yusuf	-11.5919
▁pounds	-11.5926
▁petto	-11.5927
dachi	-11.5929
▁tsuuchi	-11.5931
▁kime	-11.5932
zuke	-11.5936
▁hyouteki	-11.5937
▁Seem	-11.5944
▁fuman	-11.5945
▁Jake	-11.5948
▁increased	-11.5951
▁yaki	-11.5951
▁Evan	-11.5953
ddy	-11.5954
▁suna	-11.5958
▁offering	-11.5959
▁superior	-11.5962
▁election	-11.5962
▁pizza	-11.5962
▁Excellent	-11.5962
▁terorisuto	-11.5962
▁sakazuki	-11.5962
▁kurayami	-11.5962
▁coward	-11.5963
▁apparently	-11.5963
▁Arthur	-11.5965
▁Juubun	-11.5965
▁itadakitai	-11.5965
▁properly	-11.5967
▁muki	-11.5967
▁nasare	-11.5968
▁suujitsu	-11.5972
kura	-11.5973
▁kaigan	-11.5975
▁thin	-11.5977
yan	-11.5979
▁hashitta	-11.5984
▁miruku	-11.5985
▁oeru	-11.5986
▁Amy	-11.5988
▁mitometa	-11.5988
▁seiri	-11.5992
▁mayor	-11.5993
ay	-11.6001
▁workers	-11.6002
puri	-11.6002
▁tanomi	-11.6003
▁conclusion	-11.6008
▁signature	-11.6008
▁Break	-11.6008
▁satsuei	-11.6008
▁chuudoku	-11.6008
▁kyanpu	-11.6009
▁Kinkyuu	-11.601
▁sides	-11.6011
▁Konshuu	-11.6011
▁koumoku	-11.6011
▁Erikku	-11.6012
dashite	-11.6014
▁Natsumi	-11.6014
rifu	-11.6015
▁drew	-11.6015
▁profit	-11.6019
▁]	-11.6019
▁zei	-11.6019
▁Ikou	-11.602
▁modori	-11.602
▁goodbye	-11.602
▁wrap	-11.6021
▁ichizoku	-11.6023
▁Tomasu	-11.6028
bara	-11.6032
▁tsuu	-11.6035
▁cats	-11.6035
▁hebi	-11.6037
▁yosa	-11.6038
▁blast	-11.604
50	-11.6044
▁Dani	-11.6044
▁completed	-11.6046
▁denshi	-11.6047
▁seido	-11.6051
ramu	-11.6054
▁Hope	-11.6054
▁label	-11.6054
▁childhood	-11.6054
▁finchi	-11.6055
▁bouei	-11.6055
zuru	-11.6059
▁alien	-11.6059
▁hanashimasu	-11.606
▁Kaette	-11.6061
▁nendai	-11.6067
▁koudo	-11.607
▁friendly	-11.6071
▁kaimei	-11.6074
▁fumi	-11.6074
▁futou	-11.6074
▁Uchuu	-11.6076
▁taisei	-11.6079
nakucha	-11.608
▁rider	-11.6081
ham	-11.6084
nakattara	-11.6084
▁omoidashita	-11.6087
▁generate	-11.6088
eg	-11.6089
▁focused	-11.6089
▁endo	-11.6092
▁extend	-11.6093
▁fushi	-11.6093
▁kiseki	-11.6094
▁pages	-11.6095
▁cluster	-11.6097
▁Control	-11.61
▁Error	-11.61
▁Sergeant	-11.61
▁osusume	-11.61
▁fusawashii	-11.61
▁sunawachi	-11.61
▁ketsueki	-11.61
▁okotoba	-11.6101
▁Eren	-11.6102
▁senaka	-11.6102
▁abunai	-11.6103
▁Taitei	-11.6103
▁cab	-11.6107
▁Pick	-11.6107
▁sokkuri	-11.6108
▁applied	-11.6108
▁Hiru	-11.6109
▁Er	-11.6109
▁sayou	-11.6114
▁iiga	-11.6114
▁kakushi	-11.6122
▁extract	-11.6125
▁koma	-11.6125
▁Roi	-11.6128
▁Ain	-11.613
▁Amen	-11.6131
▁joji	-11.6133
▁Ippou	-11.6137
▁bucks	-11.6138
▁haratta	-11.6141
▁witch	-11.6145
▁gasshuukoku	-11.6146
▁iwayuru	-11.6146
▁hageshiku	-11.6146
▁tsukiatte	-11.6146
▁management	-11.6147
▁Instead	-11.6147
▁Jedai	-11.6148
▁chira	-11.6148
▁Shikago	-11.6149
▁passengers	-11.6149
▁maniau	-11.6149
▁Color	-11.6149
▁omoeru	-11.6152
▁pasokon	-11.6153
uick	-11.6154
1"	-11.6158
▁Maya	-11.617
waku	-11.617
▁Shima	-11.617
▁princess	-11.6171
▁layer	-11.6172
▁Joni	-11.6174
ade	-11.6174
kubi	-11.6179
▁mitan	-11.6183
▁Kougeki	-11.6185
▁ouji	-11.6186
▁nattan	-11.6189
rse	-11.6189
▁hata	-11.6191
▁Mexico	-11.6193
▁gozaimashita	-11.6193
▁importance	-11.6193
▁raito	-11.6193
▁hoankan	-11.6193
▁naosu	-11.6193
▁Meirei	-11.6194
▁manande	-11.6194
▁implementation	-11.6196
▁modoranai	-11.6196
▁kemono	-11.6197
▁kotaeta	-11.6197
▁Raian	-11.6199
▁Joan	-11.6201
▁touji	-11.6204
▁Aye	-11.6205
▁loaded	-11.6206
▁yattan	-11.6209
▁otozureta	-11.6214
▁tsutaeta	-11.6216
▁Utsu	-11.6217
▁jikou	-11.6218
▁seibutsu	-11.6218
▁tab	-11.622
▁Hanasu	-11.6225
▁methods	-11.6226
▁pitch	-11.6227
▁download	-11.6227
cc	-11.6229
▁Tate	-11.6234
▁slip	-11.6239
▁oyoide	-11.6239
▁haitatsu	-11.624
▁Kato	-11.6243
▁izon	-11.6244
▁kensetsu	-11.6244
▁untenshu	-11.6244
▁settings	-11.6244
ick	-11.6244
dle	-11.6246
▁tenshitachi	-11.6246
istic	-11.6247
▁assignment	-11.6248
▁ski	-11.625
▁painted	-11.6251
repoto	-11.6252
agatta	-11.6252
▁Hide	-11.6254
▁nagareru	-11.6257
▁utatte	-11.6257
▁hame	-11.6257
▁breathing	-11.6259
▁Grab	-11.6259
▁Bur	-11.6259
ome	-11.6262
▁Africa	-11.6267
▁squared	-11.6267
▁Jimi	-11.6273
▁motteta	-11.6274
▁Sc	-11.6275
▁shichou	-11.6276
▁Shiro	-11.6276
▁import	-11.6279
▁stress	-11.6279
▁machigatteru	-11.6279
▁nobeta	-11.628
▁Suimasen	-11.6283
▁procedure	-11.6286
▁soccer	-11.6286
▁Minister	-11.6286
▁isoge	-11.6287
▁index	-11.6287
▁Relic	-11.6288
▁ikanakya	-11.6288
▁impressed	-11.6288
▁talks	-11.6288
▁Bauer	-11.6289
▁Tadashi	-11.629
▁shitagai	-11.6291
▁muzai	-11.6293
▁Thou	-11.6295
▁ruined	-11.6298
▁Pop	-11.6299
▁yurusu	-11.6299
ud	-11.6305
▁yurusareru	-11.6311
▁mago	-11.6311
▁300	-11.6311
▁watashita	-11.6311
▁mostly	-11.6312
▁gain	-11.6317
▁iyou	-11.6318
▁watase	-11.6321
niku	-11.6323
▁genkai	-11.6325
▁vegetables	-11.6325
▁valid	-11.6333
▁British	-11.6333
▁romantic	-11.6333
▁thread	-11.6334
▁tsubu	-11.6334
▁SAW	-11.6334
▁toraburu	-11.6334
▁fancy	-11.6334
▁Kesshite	-11.6334
▁kingaku	-11.6337
▁yuurei	-11.6338
▁established	-11.634
▁waratte	-11.6342
▁okashiku	-11.6345
▁shimaimasu	-11.6345
▁determined	-11.6349
▁satou	-11.6352
▁exists	-11.6355
▁careless	-11.6356
▁keni	-11.6356
▁oriru	-11.6358
▁armed	-11.6358
▁kishi	-11.636
natte	-11.6367
print	-11.6374
uit	-11.6378
▁satellite	-11.6381
▁Company	-11.6381
▁dialog	-11.6381
▁funeral	-11.6381
▁itadaku	-11.6381
▁Senator	-11.6382
▁nyuuin	-11.6385
toke	-11.6385
▁Rido	-11.639
▁kinchou	-11.6391
▁belief	-11.6391
hand	-11.6391
▁mile	-11.6391
▁shikamo	-11.6394
▁belt	-11.6401
utou	-11.6406
ON	-11.6406
▁nami	-11.6407
▁seishi	-11.641
▁Yan	-11.6414
▁suku	-11.6415
▁lest	-11.6416
▁capture	-11.6417
▁kudasaru	-11.6419
▁keii	-11.6423
▁Grand	-11.6424
centric	-11.6424
Ha	-11.6425
▁affairs	-11.6427
▁dome	-11.6428
▁desperate	-11.6428
▁Spotter	-11.6429
▁risshou	-11.6429
▁migigawa	-11.643
▁nights	-11.6431
ette	-11.6432
▁invented	-11.6432
▁fifty	-11.6433
▁mottenai	-11.6434
some	-11.6435
▁contain	-11.6435
▁tagu	-11.6438
▁advised	-11.6439
▁juuryoku	-11.6439
▁suffered	-11.644
▁wakare	-11.6444
▁golf	-11.6445
▁Misete	-11.6446
▁Taishi	-11.6449
▁parent	-11.6449
▁Tara	-11.6456
▁shiryou	-11.6457
wanakereba	-11.6458
▁guru	-11.6461
▁proved	-11.6463
▁kuma	-11.6464
▁Nah	-11.6464
▁lad	-11.6465
game	-11.6465
ric	-11.6468
▁punch	-11.647
▁Kabu	-11.6474
▁kikoenai	-11.6474
▁upper	-11.6475
▁tank	-11.6475
▁zonbi	-11.6476
▁kyonen	-11.6477
▁prior	-11.6478
sanakatta	-11.6479
▁Owari	-11.6479
this	-11.6479
▁shitsubou	-11.648
▁amai	-11.648
▁Genkin	-11.648
▁Matsu	-11.648
▁Super	-11.6482
▁Mind	-11.6483
press	-11.6483
▁kyoudou	-11.6486
▁okori	-11.649
▁Nenkan	-11.6493
▁Aaron	-11.6494
▁hotto	-11.6497
▁kayotte	-11.6498
sazu	-11.6498
gachi	-11.6499
▁ren	-11.6499
▁cow	-11.6499
▁kowaga	-11.6513
▁recognized	-11.6514
mazu	-11.6516
kken	-11.6518
▁facility	-11.6524
▁judgment	-11.6524
▁precious	-11.6524
▁Kusottare	-11.6524
▁secretary	-11.6526
▁Apple	-11.6526
▁ramp	-11.6527
▁coast	-11.6527
▁22	-11.6528
▁Muhan	-11.6529
▁saibou	-11.6529
duct	-11.653
▁utau	-11.6531
▁zenchou	-11.6531
▁rejected	-11.6532
try	-11.6533
▁murders	-11.6536
▁Bank	-11.6537
▁analytics	-11.654
▁Victor	-11.6545
well	-11.6545
▁pushed	-11.6545
ville	-11.6545
▁uwa	-11.6547
▁kyouki	-11.6553
yon	-11.6554
▁yokose	-11.6563
▁tastes	-11.6566
▁visiting	-11.6567
▁shidousha	-11.6569
▁nerai	-11.6569
like	-11.657
▁Matthew	-11.6573
▁politics	-11.6573
▁doragon	-11.6573
▁Plus	-11.6573
▁kuda	-11.6573
▁Sister	-11.6573
mber	-11.6574
▁Linda	-11.6574
▁Found	-11.6575
▁Goodbye	-11.6576
▁aniki	-11.6577
▁Ropu	-11.6578
▁Buji	-11.6579
▁fuete	-11.6599
▁considering	-11.6603
▁aid	-11.6603
▁Niku	-11.6606
▁raw	-11.6617
▁Count	-11.6617
▁assure	-11.6619
bita	-11.6619
mawari	-11.662
▁Indian	-11.662
▁grief	-11.6621
▁trunk	-11.6621
▁Shippai	-11.6621
▁Yoroshiku	-11.6621
▁Otherwise	-11.6621
▁jisshi	-11.6622
▁Masani	-11.6622
▁editor	-11.6622
▁bagu	-11.6623
▁Fuyu	-11.6624
▁Italy	-11.6626
awanai	-11.6627
▁koori	-11.6632
▁shigeki	-11.6634
▁kinyou	-11.6634
▁principle	-11.6635
▁butsuri	-11.6635
▁ume	-11.6636
▁23	-11.6637
▁Yuka	-11.6637
▁kizukanai	-11.664
▁2,	-11.6642
She	-11.6649
▁kizutsuketa	-11.665
▁kaori	-11.6652
▁conduct	-11.6653
tsui	-11.6656
cked	-11.6658
▁2.	-11.6659
▁Feel	-11.6662
▁garasu	-11.6664
ensu	-11.6666
▁cl	-11.6668
Let	-11.6668
▁op	-11.6669
▁Answer	-11.667
▁earnings	-11.667
▁Fall	-11.667
▁joukyaku	-11.667
▁During	-11.667
▁egaita	-11.6671
▁Jeison	-11.6671
▁tests	-11.6671
▁Keiji	-11.6672
▁basement	-11.6672
▁nakattan	-11.6672
▁reaction	-11.6673
▁friendship	-11.6674
kazu	-11.6674
▁shuujin	-11.6674
▁meishou	-11.668
▁katsuyou	-11.6681
▁rikou	-11.6683
▁Chimu	-11.6685
▁Suru	-11.6689
▁hated	-11.669
▁kaiken	-11.6697
▁Aron	-11.6697
▁morae	-11.6699
▁vain	-11.6704
▁yobidashi	-11.6705
▁konomu	-11.6709
▁Arigato	-11.6713
▁reflect	-11.6716
▁chip	-11.6717
▁shimasuga	-11.6719
▁ambulance	-11.6719
▁Message	-11.6719
▁Search	-11.6719
▁impact	-11.6719
▁sabishii	-11.6719
str	-11.672
▁mukui	-11.672
▁Iran	-11.6721
-1	-11.6723
▁Toire	-11.6724
ov	-11.6729
▁official	-11.673
tainara	-11.6731
▁conditions	-11.6733
ttan	-11.6734
▁vampire	-11.6734
susan	-11.6736
▁Katte	-11.6741
▁yane	-11.6744
cus	-11.6745
mashi	-11.6746
▁Suman	-11.6747
▁chances	-11.6747
▁kangaeteta	-11.6748
▁Mato	-11.6749
▁saseyou	-11.675
▁Gar	-11.675
▁rows	-11.6751
▁screw	-11.6752
▁Noah	-11.6756
shia	-11.6758
▁okonaimasu	-11.6758
▁defeat	-11.6762
▁Zai	-11.6763
▁refuge	-11.6767
▁beruto	-11.6768
▁Keimusho	-11.6768
▁convenient	-11.6768
ST	-11.6768
▁Jigoku	-11.6769
▁charity	-11.6769
▁hiraita	-11.6769
▁mazushii	-11.6769
▁mawatte	-11.677
▁Cross	-11.677
▁Kamisama	-11.6772
▁tsukanda	-11.6772
▁chu	-11.6775
▁bored	-11.6776
yasuku	-11.6776
▁smells	-11.6777
pura	-11.678
▁surubeki	-11.6785
▁beast	-11.6785
▁kouken	-11.6788
▁Arashi	-11.679
▁tatakatte	-11.6794
▁Doubutsu	-11.6794
▁Miru	-11.6798
▁tatakatta	-11.6799
▁agero	-11.68
▁Ruku	-11.68
▁Eat	-11.6802
▁bei	-11.6803
▁Yose	-11.681
▁metoru	-11.681
lock	-11.681
▁initial	-11.6813
▁sagase	-11.6817
▁Benjamin	-11.6818
▁provision	-11.6818
▁Maggie	-11.6818
▁midnight	-11.6818
▁chastisement	-11.6818
▁priest	-11.6818
▁Bakudan	-11.6818
▁chuuou	-11.6821
huh	-11.6821
▁seika	-11.6822
ky	-11.6822
ttle	-11.6822
▁Certainly	-11.6823
▁screwed	-11.6825
▁payable	-11.6826
▁dokushou	-11.6826
▁nakayoku	-11.6828
ningu	-11.6829
▁kataku	-11.6831
▁powers	-11.6833
▁miteta	-11.6833
▁musen	-11.6834
▁Har	-11.6835
▁Hakase	-11.6841
soi	-11.6842
jiyuu	-11.6843
enakatta	-11.6843
▁skill	-11.6843
▁tsukushite	-11.6844
▁pushing	-11.6844
▁kiitenai	-11.6846
▁yoki	-11.6848
▁acted	-11.685
▁commands	-11.6853
▁curse	-11.6857
ef	-11.6857
▁Bell	-11.6859
▁haite	-11.6861
kkoku	-11.6862
▁Kake	-11.6863
▁Blood	-11.6864
▁sorosoro	-11.6868
▁volume	-11.6868
▁primary	-11.6868
▁cattle	-11.6868
▁Death	-11.6868
▁hopefully	-11.6868
▁Wouldn	-11.6869
▁hajimemashou	-11.687
▁drowned	-11.6871
▁stopping	-11.6872
book	-11.6872
▁located	-11.6875
▁mayoi	-11.6875
nie	-11.6876
▁mikomi	-11.6876
▁Ryuu	-11.6876
▁kuroi	-11.6877
▁gathered	-11.6877
▁Hanna	-11.6877
▁juushi	-11.6879
▁millions	-11.6879
rashita	-11.688
▁tsukusu	-11.688
▁regard	-11.6884
▁bull	-11.6887
mmer	-11.6887
tting	-11.689
▁yougo	-11.6894
▁ichidan	-11.6896
▁app	-11.6898
▁Derek	-11.6898
jiru	-11.6899
▁Kuma	-11.6899
▁suteru	-11.6904
▁searching	-11.6905
▁Lock	-11.6908
▁Walt	-11.6908
▁bando	-11.6908
suwari	-11.6909
▁dawn	-11.6914
rashite	-11.6917
▁Rebecca	-11.6918
▁Reicheru	-11.6918
▁fuchuui	-11.6918
▁hageshii	-11.6918
▁motarasu	-11.6918
▁tetsudau	-11.6918
▁omocha	-11.6918
▁Zannennagara	-11.6919
▁dishes	-11.6919
▁Genjitsu	-11.6919
▁Tsurete	-11.6921
▁wakaku	-11.6921
▁Careful	-11.6922
▁oroshite	-11.6924
▁tsukiai	-11.6925
▁Ouji	-11.6925
▁tetsu	-11.6925
▁unei	-11.6926
▁Prime	-11.6927
▁orenji	-11.6927
▁kano	-11.6928
▁Kuri	-11.6929
▁seats	-11.6932
▁dekiteru	-11.6935
▁tsukawanai	-11.6935
hy	-11.6935
▁adult	-11.6936
tora	-11.6936
▁nakya	-11.694
▁Haku	-11.6941
▁Note	-11.6943
▁reji	-11.6943
mate	-11.6945
▁ihou	-11.6947
▁hokan	-11.6947
▁katto	-11.695
▁mitenai	-11.6952
▁onnatachi	-11.6953
▁admire	-11.6956
▁umareru	-11.6957
gemu	-11.6959
▁documents	-11.696
▁Iin	-11.6962
▁occasion	-11.6966
nori	-11.6968
▁Jordan	-11.6968
▁Obviously	-11.6968
▁alternative	-11.6968
▁yunitto	-11.6968
▁pittari	-11.6968
▁Morgan	-11.6968
▁tsuuhou	-11.6969
▁admitted	-11.6969
▁rising	-11.6969
▁higai	-11.697
▁otozureru	-11.697
▁curve	-11.6973
▁wakareta	-11.6973
▁tejun	-11.6974
suko	-11.6974
▁Kakunin	-11.6975
▁sensitive	-11.6976
▁toutatsu	-11.6976
▁todoke	-11.6977
▁kisei	-11.6982
▁housoku	-11.6984
▁Ver	-11.6984
▁Kyoukai	-11.6985
heki	-11.6985
▁messenger	-11.6987
▁owa	-11.699
▁atatte	-11.6993
▁migite	-11.6993
▁arrow	-11.6994
▁kodoku	-11.6995
▁movement	-11.6995
▁tsuka	-11.6996
▁kurosu	-11.6997
▁Tsumi	-11.6998
▁suite	-11.7
▁gure	-11.7002
▁tear	-11.7002
ification	-11.7006
▁ittaga	-11.7006
goe	-11.7006
▁falls	-11.7009
point	-11.7016
▁beneath	-11.7018
▁Write	-11.7018
▁attractive	-11.7019
fire	-11.7023
rusa	-11.7024
suku	-11.7028
▁Gri	-11.7028
tsuri	-11.703
▁Kyoudai	-11.7031
▁Mum	-11.7033
▁nemuri	-11.7034
▁maka	-11.7041
▁Nanshi	-11.7042
noko	-11.7043
▁tabenai	-11.7043
▁helps	-11.7045
▁idaite	-11.7046
▁scream	-11.7055
mar	-11.7058
▁pale	-11.7059
suke	-11.7062
▁unjust	-11.7067
room	-11.7067
▁tabu	-11.7069
▁uketori	-11.7069
▁intelligent	-11.7069
▁oyoso	-11.7069
▁proceed	-11.7069
▁pleasant	-11.7069
▁suspicious	-11.7069
▁Hisashiburi	-11.7069
▁Command	-11.7069
▁impression	-11.707
▁stores	-11.7071
▁blown	-11.7073
▁oukoku	-11.7074
gyousha	-11.7076
▁bitter	-11.7078
▁Kind	-11.708
▁sawaru	-11.7082
▁kirenai	-11.7085
▁Ann	-11.7086
▁eikyuu	-11.7087
▁yarareta	-11.7088
▁tsukawareru	-11.7089
▁protocol	-11.7089
▁miracle	-11.7089
goshi	-11.709
▁cave	-11.7091
▁Hani	-11.7093
▁meals	-11.7095
▁kakaete	-11.7098
poto	-11.7099
0,000	-11.71
▁suck	-11.71
▁Genba	-11.7101
▁sweat	-11.7101
▁banchuu	-11.7102
▁nakami	-11.7103
▁Tomete	-11.7109
▁monitor	-11.7111
▁minor	-11.7115
sero	-11.7116
▁yobe	-11.7118
▁minimum	-11.712
▁samazama	-11.712
▁zokusuru	-11.712
▁Teresa	-11.712
roku	-11.712
space	-11.712
▁nikki	-11.7121
▁kudamono	-11.7121
▁verses	-11.7121
▁passport	-11.7121
▁furumai	-11.7122
▁maze	-11.7122
▁kyuusoku	-11.7122
▁koeru	-11.7123
udo	-11.7123
▁Free	-11.7124
▁bunkatsu	-11.7125
▁Coming	-11.7127
▁Nigeru	-11.7127
▁wakari	-11.7128
▁Minami	-11.7129
▁sairyou	-11.713
▁seiseki	-11.7131
▁Kanjou	-11.7131
▁prevented	-11.7132
kkei	-11.7134
▁tobira	-11.7135
▁inain	-11.7137
▁Kikai	-11.7141
fura	-11.7142
▁slave	-11.7143
▁Marie	-11.7143
ably	-11.7144
▁Netto	-11.7145
tsuite	-11.7145
▁mattete	-11.7148
▁plants	-11.7149
▁expectations	-11.7156
▁useless	-11.7158
▁mayotte	-11.7159
▁replace	-11.7159
▁itadaki	-11.7162
▁visual	-11.7163
place	-11.7164
▁yuushi	-11.7166
▁reported	-11.7167
▁smooth	-11.7168
▁neighbors	-11.7168
▁Au	-11.7168
▁piss	-11.7171
▁Lincoln	-11.7171
▁doraggu	-11.7171
▁shelter	-11.7171
▁usagi	-11.7171
▁Akanbou	-11.7172
▁bakuha	-11.7172
▁sasu	-11.7172
▁hiro	-11.7172
▁garage	-11.7172
▁sutete	-11.7173
▁footage	-11.7173
▁guessing	-11.7174
▁Half	-11.7174
▁kyu	-11.7174
▁sweetie	-11.7176
▁hayaok	-11.7176
kodo	-11.7177
▁outcome	-11.7177
katetsu	-11.7178
▁osotta	-11.718
ched	-11.7181
▁Soru	-11.7181
▁photograph	-11.7181
▁Banme	-11.7182
gane	-11.7183
▁mitsukemashita	-11.7185
umu	-11.7186
▁yard	-11.7188
▁firuta	-11.7189
▁comm	-11.719
usan	-11.7191
▁officers	-11.7193
▁sotte	-11.7194
▁risou	-11.7195
bei	-11.7196
▁poem	-11.7196
▁mix	-11.7197
▁hundreds	-11.7199
▁fureru	-11.7204
▁agatta	-11.7209
▁besuto	-11.721
▁solved	-11.7211
▁truthful	-11.7212
▁chuusei	-11.7215
▁doctors	-11.7217
▁dealer	-11.7219
kareru	-11.722
▁traditional	-11.722
▁charged	-11.7221
▁Graham	-11.7223
▁gyuunyuu	-11.7223
▁internet	-11.7223
atteru	-11.7223
▁Sheriff	-11.7223
Muhammad	-11.7223
▁supper	-11.7224
▁ichiin	-11.7225
▁negau	-11.7225
▁honoo	-11.7226
▁ronsou	-11.7227
▁partial	-11.7227
▁yoideshou	-11.7229
▁blocks	-11.723
▁hazushite	-11.7231
▁Renchuu	-11.7231
▁muryou	-11.7234
▁Kaigi	-11.7234
▁toujou	-11.7235
▁cancel	-11.7236
▁ikimasen	-11.7236
▁rivers	-11.7236
▁shiran	-11.7237
▁daishou	-11.7237
▁whereas	-11.7239
▁sabetsu	-11.724
▁sangyou	-11.724
▁naoshite	-11.7241
▁Buro	-11.7243
▁Knowing	-11.7244
▁mini	-11.7249
▁Off	-11.725
▁Para	-11.7251
iv	-11.7252
▁wasurenaide	-11.7254
▁counting	-11.7255
▁tazune	-11.7256
▁21	-11.7257
▁driven	-11.7257
▁tsukaemasu	-11.7258
▁ending	-11.7263
idia	-11.7266
▁differ	-11.7267
▁Edit	-11.7267
raka	-11.7268
▁bags	-11.7269
▁Sean	-11.727
▁wolf	-11.7273
▁hodokoshi	-11.7273
▁tri	-11.7273
▁Odoroita	-11.7275
▁combination	-11.7275
▁polite	-11.7275
▁tattoo	-11.7275
▁chakuriku	-11.7275
Where	-11.7276
jimen	-11.7277
▁kurudarou	-11.7277
▁Ajia	-11.7279
▁panic	-11.7281
▁dokuritsu	-11.7281
▁packages	-11.7286
▁okeba	-11.7287
cor	-11.7287
SE	-11.7287
▁keikai	-11.7287
▁kokyuu	-11.7288
tie	-11.7289
▁kaba	-11.729
They	-11.7291
Is	-11.7295
▁sukunaku	-11.7296
▁hitoshii	-11.7298
▁kigou	-11.7299
▁pond	-11.7301
▁Key	-11.7305
zuki	-11.7306
tten	-11.7308
▁doll	-11.731
▁remembered	-11.731
▁arudakara	-11.7312
▁Wakaran	-11.7313
pper	-11.7314
▁komatte	-11.7316
ikou	-11.7316
▁je	-11.7318
▁yonderu	-11.7318
wazu	-11.7319
▁geijutsu	-11.7323
kuro	-11.7323
▁v	-11.7323
▁dokusho	-11.7324
▁taisha	-11.7326
▁Dora	-11.7327
▁Especially	-11.7327
▁Rebekka	-11.7327
▁federal	-11.7327
▁daiarogu	-11.7327
▁troops	-11.7327
▁fushou	-11.7328
▁Girisha	-11.7328
myu	-11.7329
▁Wayne	-11.7329
yaka	-11.7335
▁shinnen	-11.7336
getsu	-11.7336
▁Suruto	-11.7336
▁someday	-11.7339
ageta	-11.7341
▁nokosu	-11.7342
▁tsunagaru	-11.7342
▁Mt	-11.7343
▁sonshitsu	-11.7346
ngen	-11.7346
▁dating	-11.7346
▁Hands	-11.7347
▁Louis	-11.735
▁Handa	-11.7352
▁joined	-11.7353
▁sagatte	-11.7355
pic	-11.7356
▁kaitou	-11.7358
TA	-11.7359
▁ira	-11.7364
▁kyan	-11.7365
ches	-11.7366
▁Abunai	-11.7366
▁Chika	-11.7367
▁celebrate	-11.7367
▁purchase	-11.7367
▁buta	-11.7367
▁omoimasen	-11.7368
▁Nodo	-11.7368
Are	-11.7368
ui	-11.7368
▁protected	-11.7369
▁shinka	-11.7371
▁scratch	-11.7372
▁kotoshi	-11.7372
▁goodness	-11.7374
▁Speak	-11.7375
▁remote	-11.7376
▁disagree	-11.7377
nes	-11.7378
▁Laurel	-11.7379
▁Sassato	-11.7379
▁disaster	-11.7379
▁picnic	-11.7379
▁quarrel	-11.7379
▁maiasa	-11.7379
▁houseki	-11.738
▁columns	-11.738
▁behave	-11.738
▁Dattara	-11.7381
▁tries	-11.7381
▁Canada	-11.7381
▁Saimon	-11.7382
▁Teburu	-11.7382
▁chiketto	-11.7382
100	-11.7383
▁Inta	-11.7383
▁prime	-11.7384
shingu	-11.7385
▁gutai	-11.7386
▁Part	-11.7388
▁intention	-11.7388
▁font	-11.7389
kochi	-11.7392
▁Major	-11.7393
▁instructions	-11.7393
▁youyaku	-11.7396
▁creatures	-11.7396
▁hassha	-11.7397
▁pawa	-11.74
▁koeta	-11.7404
▁Todd	-11.7408
anai	-11.741
▁rang	-11.741
position	-11.7411
▁shiti	-11.7422
▁stretch	-11.7425
▁kimitsu	-11.7431
▁traitor	-11.7432
▁financing	-11.7432
▁sail	-11.7432
▁randamu	-11.7432
▁Bakuhatsu	-11.7432
▁Bare	-11.7433
▁Jijitsu	-11.7434
▁shobun	-11.7435
▁imagoro	-11.7436
▁kudatta	-11.7436
▁mistaken	-11.7437
▁Rinda	-11.7438
▁jetto	-11.7438
▁emotional	-11.7438
▁Hit	-11.744
▁kijutsu	-11.7442
▁jon	-11.7445
har	-11.7446
▁rains	-11.7449
▁matchi	-11.745
▁Muda	-11.7452
▁holds	-11.7453
▁Messengers	-11.7455
netto	-11.7456
kkari	-11.7456
▁orange	-11.7459
▁Cap	-11.7461
kkai	-11.7461
▁br	-11.7462
▁tsugou	-11.7464
▁youth	-11.7465
▁orose	-11.7471
▁Mine	-11.7472
▁cares	-11.7473
gging	-11.7475
▁moral	-11.7476
▁kuwaeru	-11.7477
Re	-11.7478
▁Naga	-11.7479
suji	-11.748
▁Young	-11.7481
▁Department	-11.7485
▁kossetsu	-11.7485
▁Yudayanin	-11.7485
▁otoshita	-11.7488
▁Paradise	-11.7489
▁Katsute	-11.7489
▁delay	-11.7489
▁Shiri	-11.749
▁behalf	-11.749
▁katazuke	-11.7493
▁Meri	-11.7493
▁makka	-11.7493
▁kamisama	-11.7494
▁punished	-11.7495
▁sodatta	-11.7496
▁Tadashii	-11.7497
▁seiyaku	-11.7497
▁puran	-11.7499
▁chihou	-11.7499
▁multi	-11.7499
▁suggested	-11.7499
▁taisaku	-11.75
▁omoshiroku	-11.7504
▁Hoshi	-11.7507
ify	-11.751
key	-11.751
▁Cat	-11.7513
▁owattara	-11.7513
▁sugoshite	-11.7517
▁kutsuu	-11.7517
▁Shoku	-11.7518
▁payment	-11.7518
▁pit	-11.7519
▁hunter	-11.752
more	-11.7521
warete	-11.7521
▁Ochi	-11.7521
▁Ane	-11.7522
▁Areku	-11.7526
▁buro	-11.7526
▁suits	-11.7527
▁douga	-11.7527
netsu	-11.753
▁tokushu	-11.7532
▁Ketsu	-11.7534
▁Sawa	-11.7538
▁Gentlemen	-11.7538
▁certificate	-11.7538
▁sukuriputo	-11.7538
▁accent	-11.7538
▁mezurashii	-11.7538
▁somuku	-11.7538
▁robbed	-11.7538
▁hinshitsu	-11.7539
▁massive	-11.7539
▁classroom	-11.7539
▁Owatta	-11.7539
▁boueki	-11.7539
▁Buraian	-11.7539
▁gaki	-11.7539
▁Saishuu	-11.754
late	-11.754
▁shoe	-11.7541
▁tiny	-11.7541
▁angouka	-11.7541
▁shoushuu	-11.7542
wari	-11.7542
▁fomu	-11.7542
▁taijuu	-11.7543
▁Whenever	-11.7544
zei	-11.7544
▁souko	-11.7546
▁meiryou	-11.7547
▁oujite	-11.7549
▁asobu	-11.7549
▁buyer	-11.755
▁tae	-11.7551
▁kowashita	-11.7552
uru	-11.7552
▁yabai	-11.7555
▁haigo	-11.7564
▁finds	-11.7564
phi	-11.7565
▁susumeru	-11.7566
▁okonawareru	-11.7566
satte	-11.7566
▁mamore	-11.7567
▁daily	-11.7567
▁kanki	-11.7568
▁nightmare	-11.7569
▁todoku	-11.7571
▁th	-11.7573
▁jaaku	-11.7575
▁Base	-11.7576
▁mid	-11.7577
▁vo	-11.758
jaku	-11.7581
shimashita	-11.7581
▁seller	-11.7583
▁shirei	-11.7584
▁brains	-11.7587
▁wadai	-11.7591
nyurarunettowaku	-11.7591
▁choosing	-11.7591
▁revenge	-11.7591
▁Sayounara	-11.7591
▁daunrodo	-11.7591
▁otsutae	-11.7591
▁saiteki	-11.7591
▁atsukatte	-11.7592
▁zennou	-11.7594
▁surrounded	-11.7594
▁hyouban	-11.7594
▁daibu	-11.7594
▁Luke	-11.7594
▁Kiera	-11.7595
yuki	-11.7596
▁bouken	-11.7596
▁aizu	-11.7597
▁obasan	-11.7599
▁rip	-11.7599
▁Tesuto	-11.7601
▁programs	-11.7601
▁199	-11.7602
▁motive	-11.7604
▁meiwaku	-11.7604
▁aboard	-11.7605
rimashou	-11.7607
▁mittsu	-11.7609
verse	-11.7611
▁kachiku	-11.7613
▁kimari	-11.7617
▁dragon	-11.7623
▁daughters	-11.7625
▁recover	-11.7626
▁omottan	-11.7626
▁throwing	-11.763
▁engage	-11.7632
▁Boto	-11.7632
▁Yamada	-11.7637
▁Kaeru	-11.7639
▁CO	-11.7641
▁dirt	-11.7642
▁kasho	-11.7642
ery	-11.7643
▁Juria	-11.7644
▁sometime	-11.7644
▁Sukotto	-11.7645
▁Cooper	-11.7645
▁Enjoy	-11.7645
▁flew	-11.7645
▁puroguramingu	-11.7645
▁chaku	-11.7645
▁laptop	-11.7645
▁lazy	-11.7645
▁sigma	-11.7646
▁subway	-11.7646
▁sakubou	-11.7647
rudaro	-11.7647
▁Oboeteru	-11.7647
▁kurabete	-11.7648
▁confidence	-11.7649
▁sekyuriti	-11.765
▁nozonda	-11.7651
▁largest	-11.7652
▁matches	-11.7652
▁nekutai	-11.7652
▁desires	-11.7652
▁kanyo	-11.7654
▁Julian	-11.7654
▁tsumetai	-11.7654
▁Helen	-11.7654
▁fifth	-11.7654
raremasen	-11.7655
▁jizen	-11.7656
dor	-11.7657
kuu	-11.7661
▁Unto	-11.7663
pot	-11.7664
▁gunsou	-11.7666
▁Adi	-11.7666
agete	-11.7668
▁Settings	-11.7675
▁Word	-11.7676
bel	-11.7677
▁naked	-11.7679
▁shitagae	-11.768
▁spin	-11.7681
▁tensou	-11.7684
▁kataru	-11.7684
darouga	-11.7684
▁weigh	-11.7685
▁faults	-11.7687
▁William	-11.7689
▁Saru	-11.7691
▁pea	-11.7691
koru	-11.7699
▁Goddamn	-11.7699
▁destination	-11.7699
▁kusoyarou	-11.7699
▁hoo	-11.77
▁Bako	-11.77
▁Money	-11.77
▁winning	-11.77
▁Brian	-11.7702
power	-11.7702
▁Okite	-11.7703
▁nengo	-11.7703
▁assigned	-11.7704
uma	-11.7706
▁Desuga	-11.7707
▁bata	-11.7709
▁meijita	-11.7709
▁trash	-11.771
▁delivery	-11.771
kuchi	-11.7711
▁beating	-11.7712
▁modorimasu	-11.7717
▁senjou	-11.7719
bble	-11.7722
datte	-11.7723
takedo	-11.7724
▁omoide	-11.7726
▁koyou	-11.7726
tingu	-11.7729
EL	-11.773
▁teachers	-11.7739
▁ikan	-11.7743
▁oogo	-11.7749
awa	-11.775
▁drawn	-11.7751
▁acceleration	-11.7754
▁ceremony	-11.7754
▁royal	-11.7754
▁operator	-11.7754
▁mare	-11.7754
▁incredible	-11.7754
▁forbidden	-11.7754
▁Larry	-11.7754
▁hossa	-11.7755
▁gorufu	-11.7755
▁Anakin	-11.7755
▁shinboru	-11.7755
▁Gordon	-11.7756
face	-11.7756
▁adventure	-11.7757
▁junchou	-11.7757
▁Kimira	-11.7758
▁fleet	-11.7759
▁highest	-11.7761
▁okashite	-11.7761
▁installed	-11.7763
▁Gary	-11.7766
▁seken	-11.7766
▁affected	-11.7766
▁kinjo	-11.7766
▁komaru	-11.7768
cking	-11.777
▁Shiken	-11.7771
▁diet	-11.7772
pos	-11.7773
mark	-11.7773
▁shinki	-11.7777
▁Shiki	-11.778
batsu	-11.7781
▁sexual	-11.7787
▁keshita	-11.7788
▁kitanai	-11.7789
take	-11.7793
▁taikin	-11.7795
kkin	-11.7802
▁juuji	-11.7804
▁dani	-11.7804
BAR	-11.7805
▁confident	-11.7808
▁kowaku	-11.7808
▁Nelson	-11.7808
▁supplies	-11.7808
▁variety	-11.7808
▁elected	-11.7808
▁logistic	-11.7808
setto	-11.7809
▁kyouhaku	-11.781
▁egao	-11.7814
▁fudan	-11.7817
▁Chikaku	-11.7818
born	-11.7818
▁sofu	-11.782
▁omoimashita	-11.7821
inu	-11.7823
▁satsu	-11.7824
▁Ocha	-11.7825
appu	-11.7825
rated	-11.783
furi	-11.7831
ang	-11.7831
▁crown	-11.7832
▁oe	-11.7838
eshon	-11.7842
▁karamu	-11.7843
▁zoo	-11.7845
▁choices	-11.7846
ora	-11.785
tatte	-11.7852
▁tsuzuki	-11.7858
▁mokugeki	-11.786
▁Ve	-11.786
▁establish	-11.7861
▁Gaikoku	-11.7862
▁obligation	-11.7863
▁itashimashite	-11.7863
▁drank	-11.7863
▁Ganbatte	-11.7863
▁eager	-11.7863
▁slipped	-11.7863
▁mochinushi	-11.7863
▁Patorikku	-11.7863
▁yasunda	-11.7863
▁trapped	-11.7863
▁Shikamo	-11.7864
▁hammer	-11.7865
▁shohyou	-11.7865
▁Station	-11.7865
▁rabo	-11.7867
▁Seta	-11.7868
▁kankou	-11.7868
ek	-11.7869
▁yabutta	-11.7869
▁machigaeta	-11.7869
▁toraeru	-11.7871
▁Fred	-11.7871
▁Speaking	-11.7872
▁reiya	-11.7873
ppe	-11.7873
suri	-11.7874
▁babe	-11.7874
▁abide	-11.7875
Our	-11.7875
▁yarun	-11.7876
▁temp	-11.788
▁yareba	-11.7884
▁koroshiya	-11.7886
nikku	-11.7886
▁shiraseru	-11.7891
▁relative	-11.7893
▁reisei	-11.79
▁interrupt	-11.7902
▁spite	-11.7903
▁Honno	-11.7908
nkai	-11.791
▁Kae	-11.7916
▁ushinai	-11.7917
▁resist	-11.7918
▁Column	-11.7918
▁arrival	-11.7918
▁Bruce	-11.7918
▁tadachini	-11.7918
▁achikochi	-11.7918
▁depth	-11.7919
▁Koe	-11.7919
▁yuuwaku	-11.792
▁robbery	-11.792
▁zahyou	-11.792
▁yusou	-11.7927
▁deaf	-11.7935
▁kangaemasu	-11.7937
▁narukara	-11.7939
▁agaru	-11.7939
▁Koku	-11.7941
▁phones	-11.7944
▁Auto	-11.7948
aba	-11.7948
▁zone	-11.7949
▁hack	-11.795
doers	-11.7953
emasu	-11.7956
▁Law	-11.7958
▁Nemu	-11.7959
▁Koro	-11.7962
matteru	-11.7963
▁Doug	-11.7966
▁Dona	-11.7967
▁keihi	-11.7967
▁Game	-11.7968
stic	-11.7968
▁Tim	-11.7971
▁Point	-11.7972
▁Gaussian	-11.7974
▁extension	-11.7974
▁Kyonen	-11.7974
▁formal	-11.7975
▁chokusen	-11.7975
▁tekotta	-11.7975
▁Kebin	-11.7975
▁ronbun	-11.7976
▁guardian	-11.7976
▁Konban	-11.7977
win	-11.7977
▁Lance	-11.7977
▁nearest	-11.7978
▁axis	-11.798
▁korosare	-11.7981
▁pissed	-11.7982
▁heta	-11.7982
▁fonto	-11.7983
▁manuke	-11.7984
rareteru	-11.7984
▁areas	-11.7991
hole	-11.7993
nja	-11.7996
▁jet	-11.7999
▁introduced	-11.7999
▁Kiki	-11.8001
ral	-11.8001
▁icon	-11.8003
▁Yame	-11.8005
▁engineer	-11.8006
▁Col	-11.8008
▁faithful	-11.8008
bli	-11.8012
▁patch	-11.8013
▁Image	-11.8014
ition	-11.8014
▁Iraku	-11.8015
▁irareru	-11.8015
▁advise	-11.8018
▁safely	-11.8018
▁hisho	-11.8025
sutora	-11.8027
▁Eric	-11.8028
▁Central	-11.803
▁reservation	-11.803
▁puzzle	-11.803
▁senior	-11.803
▁oyasumi	-11.8031
▁okoshi	-11.8033
▁View	-11.8033
▁konshuu	-11.8033
▁Eight	-11.8033
▁seesaw	-11.8034
▁warehouse	-11.8035
▁shuukaku	-11.8035
▁jack	-11.8036
kkan	-11.8036
▁ataru	-11.8037
▁nintai	-11.8039
Be	-11.8039
ibu	-11.8042
▁masuku	-11.8042
▁arai	-11.8043
▁Iron	-11.8043
▁Jeshi	-11.8044
▁mighty	-11.8045
▁shared	-11.8046
▁hitome	-11.8052
▁bang	-11.8054
▁Seiki	-11.8054
▁kanpai	-11.8056
▁Wasure	-11.8056
▁gakusha	-11.8057
▁hajimemasu	-11.8058
▁nise	-11.806
▁Rose	-11.8063
▁sagashiteta	-11.8064
▁akka	-11.8066
▁puts	-11.8066
▁laws	-11.8066
▁onnara	-11.8067
▁fuke	-11.8072
af	-11.8075
▁discover	-11.8076
▁inshou	-11.808
▁Shisu	-11.808
▁Guy	-11.808
▁honbu	-11.8083
▁airplane	-11.8086
▁gravity	-11.8086
▁breach	-11.8086
▁dislike	-11.8086
▁al	-11.8087
▁priority	-11.8087
▁Marty	-11.8087
▁bucket	-11.8087
▁Army	-11.8088
▁Shourai	-11.8089
▁Manichi	-11.8091
etto	-11.8093
▁mienakatta	-11.8094
▁atsumeru	-11.8097
▁kieru	-11.8098
▁kozou	-11.8099
▁Kikoeru	-11.8103
▁tech	-11.8105
▁Toddo	-11.8106
stone	-11.8114
guu	-11.8115
▁cells	-11.8117
▁shadow	-11.8123
▁fito	-11.8127
▁Matt	-11.8128
ach	-11.8129
All	-11.8136
▁le	-11.8137
▁Rosu	-11.8138
muzu	-11.814
▁sekkin	-11.8141
koshi	-11.8142
▁Dexter	-11.8142
▁capacity	-11.8142
▁council	-11.8142
▁nusumu	-11.8142
▁compound	-11.8143
▁Okaeri	-11.8143
▁audio	-11.8143
▁swing	-11.8143
▁omoitsuita	-11.8143
There	-11.8144
▁junban	-11.8144
▁banana	-11.8145
▁mokugekisha	-11.8146
▁Utsukushii	-11.8146
▁Shito	-11.8147
▁ubau	-11.815
▁cutting	-11.815
▁pity	-11.8152
▁mitomete	-11.8152
igoto	-11.8153
▁ryounin	-11.8157
▁dekakete	-11.8158
▁Mati	-11.8159
▁buttai	-11.8159
geta	-11.8163
▁tottemo	-11.8163
▁yado	-11.8172
▁kyouka	-11.8173
▁3.	-11.8174
▁Hill	-11.8174
▁sabaku	-11.8175
▁messengers	-11.8178
▁sasero	-11.8178
▁creature	-11.8181
▁Art	-11.8181
▁nakushite	-11.8182
▁struggle	-11.8187
▁utagatte	-11.8187
▁Bei	-11.8188
▁Osu	-11.8189
too	-11.819
▁haishi	-11.8192
▁Gasu	-11.8194
zukai	-11.8197
▁hanashiteta	-11.8199
▁Jeikobu	-11.8199
▁recompense	-11.8199
▁versus	-11.8199
▁kurikaesu	-11.8199
ppanashi	-11.82
▁dengon	-11.82
▁Shuumatsu	-11.82
▁tanoshinda	-11.8201
▁Ugh	-11.8201
▁shousuu	-11.8202
doro	-11.8203
▁itadakimasu	-11.8205
But	-11.8206
▁Joseph	-11.8206
raru	-11.8206
▁kurutta	-11.8209
▁jimoto	-11.8209
▁Tsune	-11.8213
▁bench	-11.8213
▁taru	-11.8214
▁ugokasu	-11.8215
▁operational	-11.8215
▁Scar	-11.8216
▁reddo	-11.8219
agari	-11.8222
▁nareta	-11.8226
▁bato	-11.8227
▁Kuni	-11.8227
▁dates	-11.8228
top	-11.8232
▁shitto	-11.8236
▁suruga	-11.8237
doki	-11.8237
ists	-11.8239
▁Andy	-11.8247
▁surrender	-11.8249
Fi	-11.8251
▁houkai	-11.8252
▁mikake	-11.8255
▁hobby	-11.8256
▁liabilities	-11.8256
▁nusunde	-11.8256
▁offense	-11.8256
▁bargain	-11.8257
▁Yoroshii	-11.8257
▁Furan	-11.8257
▁Hotel	-11.8257
▁Choose	-11.8257
▁akarui	-11.8258
▁Mawari	-11.8258
▁emails	-11.8259
▁kantoku	-11.8259
rukedo	-11.8261
▁tsukamatta	-11.8264
▁gardens	-11.8264
▁hits	-11.8264
▁shiso	-11.8266
▁Tsuu	-11.8267
▁ooin	-11.8267
▁Power	-11.8268
▁Andi	-11.8271
▁zuke	-11.8273
▁differently	-11.8277
▁Chikai	-11.8282
cks	-11.8284
▁otokotachi	-11.8285
mingu	-11.8285
▁Tokei	-11.8286
▁Main	-11.8286
▁IT	-11.8288
▁Sutan	-11.8291
▁naite	-11.8294
sutan	-11.8295
▁depending	-11.8299
▁Poto	-11.8299
▁supported	-11.8303
kashita	-11.8304
▁Hour	-11.8305
▁pipe	-11.8307
30	-11.8308
▁kikuto	-11.8309
uiet	-11.831
▁guilt	-11.8311
▁hakubutsukan	-11.8314
▁covenant	-11.8314
▁species	-11.8314
▁911	-11.8314
▁Marcus	-11.8314
▁konnichiha	-11.8315
▁Tonight	-11.8316
▁kuria	-11.8316
▁bakkari	-11.8316
▁Therefore	-11.8317
▁chokkan	-11.8317
▁Tamago	-11.8318
▁labor	-11.8318
▁yappari	-11.8318
▁hanmei	-11.832
▁estate	-11.8321
▁Uru	-11.8322
▁recovered	-11.8322
▁suggestion	-11.8323
▁Val	-11.8325
▁Isshou	-11.8326
vers	-11.8326
▁saiken	-11.8326
▁houfu	-11.833
▁River	-11.8332
Hey	-11.8332
▁Kumo	-11.8334
▁shigen	-11.8334
IS	-11.8337
▁gates	-11.8338
▁Kuin	-11.8342
ppi	-11.8342
▁bullets	-11.8342
▁Kashi	-11.8343
▁begun	-11.835
▁houki	-11.835
▁Furu	-11.8351
▁seeking	-11.8355
uke	-11.8358
▁breaks	-11.8364
rusu	-11.8364
▁Cal	-11.8369
▁araware	-11.837
▁Saiban	-11.8372
▁Rachel	-11.8372
▁raiburari	-11.8372
▁sawagi	-11.8372
▁legend	-11.8372
▁chuujitsu	-11.8373
▁shoumeisho	-11.8373
▁oshimai	-11.8374
In	-11.8374
▁shikibetsu	-11.8375
▁stable	-11.8376
par	-11.8377
▁minshu	-11.8378
▁itazura	-11.8378
[	-11.8379
▁Kigyou	-11.8379
▁riding	-11.8381
▁Tanoshii	-11.8382
▁Pure	-11.8383
▁lion	-11.8386
▁Chiisai	-11.8386
▁tsukushita	-11.8389
▁quote	-11.8389
▁oboetenai	-11.8398
▁Dar	-11.8398
▁ikukara	-11.8399
▁iraira	-11.84
▁wasted	-11.8403
▁kuwae	-11.8403
▁osaete	-11.8409
▁tadashi	-11.8412
ofu	-11.8414
even	-11.8414
▁kazoe	-11.8415
▁provides	-11.8416
▁deposit	-11.8417
▁subekide	-11.8421
▁charm	-11.8422
▁Cole	-11.8422
▁March	-11.8426
▁owaraseru	-11.8429
▁generous	-11.843
▁ratios	-11.843
▁Iraq	-11.843
▁babies	-11.843
▁Madison	-11.843
▁goumon	-11.8433
▁wronged	-11.8433
oba	-11.8434
▁Enjin	-11.8434
agatte	-11.8434
▁songs	-11.8435
▁mayotta	-11.8435
▁URL	-11.8435
▁threatened	-11.8435
▁waves	-11.8435
▁Seishin	-11.8436
▁humanity	-11.8436
▁fuufu	-11.8437
▁mobile	-11.8439
▁Sekaichuu	-11.8439
▁sweater	-11.8441
▁rosu	-11.8441
cket	-11.8445
▁shinsen	-11.8445
▁iiwatashi	-11.8448
fan	-11.845
▁Nay	-11.8452
▁nenryou	-11.8452
▁fuse	-11.8453
▁kantai	-11.8455
▁Kouen	-11.8459
▁shikyuu	-11.8462
▁manners	-11.8462
▁Need	-11.8464
ev	-11.8464
▁dekai	-11.8464
▁Rari	-11.8467
ute	-11.8469
▁India	-11.8473
▁sport	-11.8474
▁otsu	-11.8475
▁makaseru	-11.8475
▁rainy	-11.8478
▁uragiri	-11.8478
▁keikokusha	-11.848
totta	-11.8481
▁wings	-11.8481
▁Kisha	-11.8483
▁Leo	-11.8485
▁Fifth	-11.8488
▁Majesty	-11.8488
▁routine	-11.8488
▁steel	-11.8488
▁skull	-11.8488
▁jerk	-11.8489
▁Yougisha	-11.8489
▁iriguchi	-11.8489
▁yasunde	-11.8489
▁Korya	-11.8489
▁centric	-11.8492
▁gaikokunin	-11.8492
▁Akira	-11.8493
▁Ab	-11.8495
banashi	-11.8498
▁demo	-11.8499
▁keijou	-11.8501
▁transactions	-11.8501
raseta	-11.8502
▁promises	-11.8505
▁busou	-11.851
▁odo	-11.851
▁1,000	-11.851
puro	-11.8511
▁Gyaku	-11.8511
▁tracks	-11.8513
▁staring	-11.8514
▁nagarete	-11.8515
▁union	-11.8518
unto	-11.852
▁slaves	-11.8523
▁yuui	-11.8526
▁Aun	-11.8527
▁complain	-11.8532
▁zombie	-11.8532
▁Touji	-11.8533
▁tune	-11.8534
▁shokuba	-11.854
▁qua	-11.8543
▁shimashitaga	-11.8543
▁limits	-11.8544
▁surunaraba	-11.8547
▁climate	-11.8547
▁preparing	-11.8547
▁receivable	-11.8547
▁significant	-11.8547
▁throne	-11.8547
▁gyangu	-11.8547
▁shield	-11.8547
▁wipe	-11.8548
▁Kawaisou	-11.8548
▁koushi	-11.8549
▁fea	-11.8549
▁Kioku	-11.855
▁aikon	-11.8552
▁Nichiyou	-11.8556
▁Page	-11.8556
▁regarding	-11.8557
▁closest	-11.8558
▁hare	-11.8558
▁limited	-11.856
▁Connor	-11.8561
▁Kisama	-11.8562
jimi	-11.8563
▁daidokoro	-11.8566
▁sounyuu	-11.8573
▁Hal	-11.8573
gatai	-11.8575
▁reijou	-11.8579
▁Mor	-11.8585
▁gurin	-11.8589
▁kanshou	-11.8591
▁Waka	-11.8593
▁nokotteru	-11.8595
▁umu	-11.8596
▁accord	-11.8598
▁Mia	-11.8601
▁hatasu	-11.8603
▁Rena	-11.8604
▁National	-11.8606
▁district	-11.8606
▁margin	-11.8606
▁physics	-11.8606
▁shuppan	-11.8606
▁Italian	-11.8606
▁hitojichi	-11.8606
▁framework	-11.8607
▁Bra	-11.8607
▁literally	-11.8607
▁fusegu	-11.8607
▁broad	-11.8607
▁uketoru	-11.8607
▁rippou	-11.8609
▁nasty	-11.861
▁hyoumen	-11.8611
▁betrayed	-11.8612
▁baito	-11.8613
Good	-11.8615
▁seized	-11.8618
▁shinken	-11.8618
▁screaming	-11.862
▁cycle	-11.862
▁identified	-11.8622
▁myou	-11.8624
▁setsu	-11.8625
▁waratta	-11.8626
gram	-11.8626
▁ikitaku	-11.8627
▁central	-11.8628
▁Deru	-11.8629
lie	-11.8629
ssou	-11.8632
▁Gyou	-11.8633
ual	-11.8636
▁bust	-11.8637
▁kouryuu	-11.8638
▁Kodo	-11.8646
▁crossing	-11.8648
▁hike	-11.8648
▁awase	-11.8651
▁Fair	-11.8652
▁continued	-11.8653
▁cock	-11.8653
▁wasting	-11.8657
▁moraemasen	-11.8661
▁kinji	-11.8662
▁Dyu	-11.8662
▁increasing	-11.8662
▁joint	-11.8663
br	-11.8663
▁Glad	-11.8664
▁squad	-11.8665
zuku	-11.8666
▁homicide	-11.8666
▁Rajio	-11.8666
▁wicked	-11.8666
▁tetsuzuki	-11.8666
▁shukketsu	-11.8666
▁Jinrui	-11.8666
▁selfish	-11.8667
▁wana	-11.8667
die	-11.8667
▁AND	-11.8668
▁Shiawase	-11.8668
▁deck	-11.8668
▁frightened	-11.8668
▁taxes	-11.8669
▁gendai	-11.8669
▁Pay	-11.867
▁blessed	-11.867
▁keihou	-11.867
▁kyougou	-11.867
▁akumu	-11.8674
▁tousou	-11.8675
▁Jeiku	-11.8676
Go	-11.8678
town	-11.8679
▁eikou	-11.8679
▁lifetime	-11.8679
▁komatta	-11.868
▁Paku	-11.868
▁Tea	-11.8681
▁houfuku	-11.8682
▁differences	-11.8683
▁kasou	-11.8686
▁debate	-11.8694
▁manabi	-11.8695
▁yome	-11.8696
▁ikka	-11.87
▁orita	-11.8701
▁mitaku	-11.8703
▁Rita	-11.8705
▁entering	-11.8707
mmy	-11.8707
▁ido	-11.871
put	-11.8711
▁kakushita	-11.8713
▁wakatteta	-11.8716
▁sensa	-11.8718
▁bias	-11.8722
ically	-11.8723
▁tenkou	-11.8725
▁Elizabeth	-11.8726
▁scheme	-11.8726
▁Tetsudatte	-11.8726
rito	-11.8726
▁alibi	-11.8726
▁gym	-11.8726
▁mousou	-11.8726
▁igaku	-11.8727
▁akirame	-11.8727
▁Br	-11.8728
▁restrain	-11.8728
▁Kawari	-11.8729
▁tsue	-11.873
▁bougai	-11.8731
▁Mateyo	-11.8731
▁Island	-11.8732
▁suwatta	-11.8733
▁budou	-11.8735
▁aimashou	-11.8735
▁choushou	-11.8735
▁Newton	-11.8737
▁dero	-11.8737
▁homes	-11.8737
▁mannaka	-11.8741
▁shidou	-11.8742
▁honestly	-11.8743
▁moraenai	-11.8744
log	-11.8746
▁Gogo	-11.8749
▁Jurian	-11.8749
pure	-11.8751
▁Shinyou	-11.8752
▁kabutte	-11.8752
▁juunin	-11.8752
▁pound	-11.8752
▁stops	-11.8754
non	-11.8754
▁saichuu	-11.8756
nomi	-11.876
▁mochiiru	-11.8761
bubun	-11.8761
yari	-11.8762
▁Bure	-11.8764
▁Kitai	-11.8771
▁achieve	-11.8773
▁Biri	-11.8774
naru	-11.8774
rrow	-11.8778
dome	-11.8778
▁Iidarou	-11.8779
▁citizens	-11.878
▁alike	-11.8781
▁march	-11.8782
▁destruction	-11.8786
▁helicopter	-11.8786
▁supichi	-11.8786
▁basis	-11.8786
▁serial	-11.8786
▁pairotto	-11.8786
▁Waruku	-11.8786
▁Guard	-11.8786
▁folk	-11.8786
▁True	-11.8787
▁Annie	-11.8788
▁shimeshita	-11.8788
▁konseki	-11.8789
▁mr	-11.879
▁ransuu	-11.8791
▁cabin	-11.8791
▁Kaeri	-11.8791
▁landing	-11.8792
▁horn	-11.8792
▁rarely	-11.8792
▁modoshite	-11.8792
▁Rokku	-11.8793
▁kaime	-11.8793
kkyo	-11.8793
ami	-11.8793
gakusha	-11.8795
▁Princess	-11.8795
▁Rock	-11.8797
▁koushiki	-11.8801
▁Okashii	-11.8805
terun	-11.8807
▁iidaro	-11.8808
▁Yumi	-11.8808
▁keiro	-11.8811
▁informed	-11.8816
▁kifu	-11.8817
▁tasuu	-11.8819
emasen	-11.882
looking	-11.8821
▁31	-11.8822
▁fruits	-11.8825
nsan	-11.8826
▁Kurasu	-11.8829
▁comment	-11.8836
▁ama	-11.884
fully	-11.8841
▁Com	-11.8841
▁tare	-11.8842
▁virtual	-11.8843
bie	-11.8847
▁omoiokose	-11.8847
▁tsuzuita	-11.8847
ada	-11.8847
▁chasing	-11.8847
▁naga	-11.8848
▁diary	-11.8848
▁Owen	-11.885
▁pafomansu	-11.885
▁ruto	-11.885
▁tsukauto	-11.8851
▁guards	-11.8851
▁Oishii	-11.8851
▁choukou	-11.8852
▁Mount	-11.8853
▁scan	-11.8854
▁hada	-11.8854
gger	-11.8854
▁ikimono	-11.8854
▁shoushin	-11.8855
▁henshin	-11.8855
thing	-11.8856
▁Riri	-11.8859
data	-11.8862
▁sofuto	-11.8863
▁joshu	-11.8866
rya	-11.8867
▁wakaranaikedo	-11.8869
▁Hawai	-11.8869
▁reminder	-11.8869
▁kouchou	-11.8871
datta	-11.8879
▁tabetai	-11.888
▁doujou	-11.8881
▁Kongo	-11.8881
aji	-11.8882
▁gyoukai	-11.8882
▁hakobi	-11.8887
cchatta	-11.8887
▁atchi	-11.8889
▁Going	-11.8889
▁nagame	-11.8891
▁suspects	-11.8898
▁volunteer	-11.89
▁yuuri	-11.8902
▁jinn	-11.8907
▁Plainview	-11.8908
▁bounty	-11.8908
▁coincidence	-11.8908
▁uirusu	-11.8908
▁wazawai	-11.8908
▁existence	-11.8908
▁gray	-11.8908
▁Betty	-11.8909
▁Rinkan	-11.8909
▁vice	-11.8909
▁tengoku	-11.8909
▁masaru	-11.891
▁goukei	-11.8911
▁Uwasa	-11.8912
▁Nigero	-11.8914
▁cheer	-11.8914
▁Taku	-11.8915
▁tsunaide	-11.8918
▁irenai	-11.8919
▁Nanigoto	-11.8923
ruma	-11.8923
▁pureto	-11.8923
▁Wain	-11.8924
▁deteru	-11.8925
▁segumento	-11.8925
▁Robi	-11.8925
▁gear	-11.8925
▁nozonderu	-11.8926
▁topic	-11.8929
▁10,000	-11.8929
▁seishitsu	-11.893
▁tsukamatte	-11.8933
who	-11.8933
giri	-11.8936
low	-11.8938
▁arudaro	-11.8943
rina	-11.8944
▁ataerare	-11.8946
▁recorded	-11.8946
▁shell	-11.8948
▁shimi	-11.8954
▁Garu	-11.8955
▁Magi	-11.8955
▁Brother	-11.8959
▁sneak	-11.896
▁hurting	-11.8962
▁Looking	-11.8964
▁devices	-11.8965
▁nail	-11.8966
bure	-11.8968
▁jushin	-11.8968
▁promotion	-11.8969
▁Brennan	-11.8969
▁assumption	-11.8969
▁seldom	-11.8969
▁maitoshi	-11.8969
▁strip	-11.8969
▁tonneru	-11.8969
▁Drink	-11.8969
▁tribe	-11.897
▁blade	-11.897
▁Ute	-11.8971
▁uwagi	-11.8971
▁chart	-11.8971
▁sekiyu	-11.8972
▁piza	-11.8972
▁shuuhen	-11.8972
▁jissen	-11.8972
▁tamotsu	-11.8973
▁Naifu	-11.8977
▁Unable	-11.8979
▁taller	-11.898
▁yaruga	-11.898
▁thereof	-11.8982
▁enakatta	-11.8983
your	-11.8983
▁shokun	-11.8985
▁captured	-11.8985
▁mitome	-11.8985
▁crowded	-11.8986
▁requested	-11.8986
▁aitemu	-11.8987
fairu	-11.8988
▁shittemasu	-11.8989
▁otoshi	-11.8989
▁Chin	-11.8992
▁sekininsha	-11.8993
▁hae	-11.8994
▁itadarou	-11.8995
▁disbelieved	-11.8996
▁kakawatte	-11.8997
▁mukatta	-11.9
tsukete	-11.9003
▁tsukaenai	-11.9003
▁yuru	-11.9004
▁scales	-11.9011
▁hanatte	-11.9011
▁Data	-11.9011
▁dentou	-11.9011
▁Sukai	-11.9012
▁avail	-11.9013
ato	-11.9013
▁Tin	-11.9016
▁confess	-11.9017
▁mayou	-11.9018
▁Create	-11.902
▁handed	-11.9021
▁Pass	-11.9021
▁joshi	-11.9023
▁detect	-11.9027
▁Atsu	-11.9027
▁Oka	-11.9028
ability	-11.903
▁shinpu	-11.903
▁furniture	-11.9031
▁somukisaru	-11.9031
▁minimize	-11.9031
▁broadcast	-11.9031
▁finance	-11.9031
▁tasshita	-11.9031
▁Import	-11.9031
▁joking	-11.9031
▁sheep	-11.9032
▁Nimotsu	-11.9033
▁yuufuku	-11.9034
▁adjusting	-11.9038
hita	-11.9039
▁Jishin	-11.9039
▁youjin	-11.904
net	-11.904
rikonde	-11.9041
obu	-11.9042
▁katari	-11.9043
▁omoidashite	-11.9043
▁hoped	-11.9043
▁koroshitenai	-11.9046
▁kouhan	-11.905
▁dekirudeshou	-11.9051
▁ureshiku	-11.9056
▁sakenda	-11.9058
▁shots	-11.9058
mura	-11.9058
▁itaku	-11.9059
▁tsuchi	-11.9064
▁fathers	-11.9065
▁Sort	-11.9068
▁Ly	-11.9069
▁saiyou	-11.907
sky	-11.9071
▁yattara	-11.9071
▁Hawaii	-11.9073
▁tobu	-11.9073
OL	-11.9085
▁leaders	-11.9085
▁chill	-11.9088
ply	-11.9088
▁candy	-11.9089
▁Watoson	-11.9089
▁cruel	-11.9092
▁submit	-11.9092
▁optimization	-11.9093
▁Barbara	-11.9093
▁Greek	-11.9093
▁sutoresu	-11.9093
▁Kirisutokyou	-11.9093
▁oshirase	-11.9093
▁kakikomi	-11.9094
▁sync	-11.9094
other	-11.9095
▁Suzan	-11.9095
▁Shinzou	-11.9095
▁Kanpai	-11.9096
▁Tanjou	-11.9097
▁Text	-11.9097
▁musician	-11.9097
▁origin	-11.9098
▁Otona	-11.9098
▁Denki	-11.9099
▁seinen	-11.9099
▁Poor	-11.91
▁pills	-11.9101
▁fee	-11.9102
cher	-11.9102
▁oudan	-11.9102
▁tap	-11.9103
▁Zero	-11.9103
▁shuukai	-11.9104
mawatte	-11.9104
kuwaku	-11.9105
▁todokeru	-11.9109
▁Ste	-11.911
▁seikei	-11.9113
▁tasu	-11.9114
▁noble	-11.9114
▁Fin	-11.9115
▁Peace	-11.9116
▁kaitai	-11.9121
▁ui	-11.9124
isuto	-11.9127
njite	-11.9129
▁worthy	-11.9131
kosu	-11.9131
kkaku	-11.9132
lish	-11.9133
▁sonchou	-11.9133
▁houdou	-11.9134
000	-11.9134
▁seikai	-11.9136
▁Russia	-11.9138
▁sasemasu	-11.9142
▁Drive	-11.9145
▁employee	-11.9148
▁yobikake	-11.915
▁Oso	-11.9152
cchau	-11.9154
otteru	-11.9154
▁alcohol	-11.9155
▁Middle	-11.9155
▁evaluate	-11.9155
▁fantastic	-11.9155
▁hisashiburi	-11.9155
▁kizukanakatta	-11.9155
▁tidings	-11.9155
▁dentist	-11.9155
▁kurushimi	-11.9155
▁consistent	-11.9155
▁contest	-11.9156
ella	-11.9156
▁Puratto	-11.9156
▁detection	-11.9156
▁scrap	-11.9156
▁Urusai	-11.9156
▁construction	-11.9156
▁densetsu	-11.9156
▁hidarigawa	-11.9157
▁joyuu	-11.9157
▁bond	-11.9157
▁Sakana	-11.9157
▁kuretan	-11.9157
▁lightning	-11.9158
▁gouhou	-11.9158
kyaku	-11.9158
▁sennyuu	-11.9158
▁rep	-11.916
▁Arabia	-11.9163
▁Cheers	-11.9164
▁Ruisu	-11.9164
▁trans	-11.9164
ribu	-11.9165
▁nana	-11.9167
▁usu	-11.9169
▁overall	-11.9174
▁Supu	-11.9174
hodo	-11.9176
▁goui	-11.9177
God	-11.918
▁wakannai	-11.918
▁thrown	-11.9182
▁Tte	-11.9184
▁dari	-11.9185
kkingu	-11.9186
5.	-11.9188
▁Dog	-11.9189
▁buri	-11.9191
▁assumed	-11.9192
▁Ted	-11.9194
▁shire	-11.9194
lies	-11.9196
▁hates	-11.9198
▁principles	-11.92
▁bake	-11.9202
▁45	-11.9204
▁sources	-11.9208
▁players	-11.9211
▁servant	-11.9212
▁resource	-11.9213
kingu	-11.9217
▁scholar	-11.9218
▁glory	-11.9218
▁plastic	-11.9218
▁rojisutikku	-11.9218
▁Nikita	-11.9218
▁weakness	-11.9218
▁protest	-11.9218
▁Center	-11.9218
▁materials	-11.9218
▁transpose	-11.9219
▁Fight	-11.9219
▁tiger	-11.9219
▁actress	-11.9219
▁dropping	-11.9219
▁horyo	-11.9219
▁kizutsuke	-11.922
▁kuukan	-11.9221
▁enpitsu	-11.9222
▁Nanimono	-11.9222
▁Keikoku	-11.9222
▁Kyaku	-11.9222
▁Hikaru	-11.9223
▁saishouka	-11.9224
chatte	-11.9225
▁sugimasu	-11.9225
▁handy	-11.9227
▁majime	-11.9229
▁shinpuru	-11.923
▁imasendeshita	-11.9231
▁Fan	-11.9232
▁wounded	-11.9234
▁soshi	-11.9235
▁Mazui	-11.9236
▁sufficient	-11.9237
▁mum	-11.9239
▁hikikae	-11.924
see	-11.9243
▁Kurai	-11.9244
▁warner	-11.9247
▁Line	-11.9249
▁remu	-11.925
sura	-11.9252
▁choku	-11.9258
▁Haven	-11.9261
▁odori	-11.9261
▁kana	-11.9262
▁orei	-11.9266
▁Push	-11.9266
▁suihei	-11.9268
▁Aware	-11.9268
▁wears	-11.9273
▁Angel	-11.9274
▁tsuitara	-11.9274
▁hihan	-11.9278
▁minds	-11.928
▁January	-11.9281
▁Mokuteki	-11.9281
▁temporary	-11.9281
▁detsuzou	-11.9281
▁minister	-11.9282
▁kajitsu	-11.9282
▁battery	-11.9282
▁Ryouhou	-11.9283
▁tanoshimu	-11.9283
ison	-11.9283
▁exhausted	-11.9284
12	-11.9287
▁downtown	-11.9287
▁shazai	-11.9289
▁Kanja	-11.9289
▁logical	-11.9291
ants	-11.9292
▁skiing	-11.9293
▁taku	-11.9299
▁taisen	-11.93
shima	-11.93
▁Kiri	-11.9301
▁arushi	-11.9302
read	-11.9303
▁bud	-11.9305
▁otaku	-11.9305
▁Kowaga	-11.9306
▁dekirun	-11.9307
▁mannin	-11.9307
▁honshitsu	-11.9307
kashite	-11.9308
▁candle	-11.931
▁moushiageta	-11.9311
▁tsukatteru	-11.9312
via	-11.9313
▁yobou	-11.9316
▁hanashiai	-11.9318
▁Path	-11.932
▁Baku	-11.932
▁sukai	-11.9324
Man	-11.9324
▁homu	-11.9325
▁mud	-11.9326
nashi	-11.9327
▁yomeru	-11.9328
▁kudasareru	-11.9328
▁Canno	-11.9333
▁Hori	-11.9334
▁tsukamaete	-11.9334
▁che	-11.9336
▁insult	-11.9338
▁takara	-11.9339
▁extreme	-11.9342
▁ideal	-11.9342
▁Beautiful	-11.9345
▁association	-11.9345
▁grieve	-11.9345
▁masashiku	-11.9345
▁Scripture	-11.9345
▁daikirai	-11.9345
▁kusottare	-11.9345
▁Jurietto	-11.9345
▁context	-11.9345
▁contrast	-11.9345
they	-11.9346
▁classified	-11.9346
▁kokuhatsu	-11.9346
▁Jidou	-11.9348
▁gekijou	-11.9349
▁frozen	-11.935
▁nufu	-11.9351
▁gichou	-11.9351
lay	-11.9354
▁shinshitsu	-11.9358
▁ittadaro	-11.936
▁ayamaru	-11.9364
▁Kokka	-11.9365
▁chikatte	-11.9366
▁sougo	-11.9367
▁DO	-11.9368
▁Busu	-11.937
▁ittadesho	-11.937
▁hanei	-11.9371
▁whore	-11.9372
▁stored	-11.9375
▁miryoku	-11.9375
▁fusa	-11.9376
ID	-11.9376
▁ikanaide	-11.9377
▁teams	-11.9378
▁atatta	-11.9379
▁kisetsu	-11.9383
▁noroi	-11.9383
▁bunri	-11.9384
▁criminals	-11.9387
▁Mill	-11.9387
▁vectors	-11.9388
zer	-11.9389
▁sakete	-11.9391
beri	-11.9397
▁Niwa	-11.9399
▁hatashita	-11.94
ryu	-11.9401
▁Gausu	-11.9402
▁cleaned	-11.9403
▁Date	-11.9403
▁practical	-11.9406
udi	-11.9407
▁arudarou	-11.9407
bone	-11.9408
mushi	-11.9409
▁CBI	-11.9409
▁crisis	-11.9409
▁garbage	-11.9409
▁receiving	-11.9409
▁religious	-11.9409
▁Promise	-11.9409
▁kitsuen	-11.9409
▁itadaite	-11.9409
▁Isaac	-11.9409
▁Yamazato	-11.9409
▁kasegi	-11.9409
▁Shukudai	-11.941
▁uketotte	-11.941
▁kurushinde	-11.941
▁shireikan	-11.9411
▁Choushoku	-11.9411
▁taira	-11.9412
▁Marcel	-11.9412
▁Iriamu	-11.9412
▁assist	-11.9413
karete	-11.9413
▁classic	-11.9414
▁gikai	-11.9415
▁Eien	-11.9415
row	-11.9415
▁efficient	-11.9415
▁Sharon	-11.9416
▁answering	-11.9417
▁sokumen	-11.9417
▁kouhei	-11.9417
▁shitakedo	-11.9417
yahari	-11.9417
▁Ureshii	-11.9417
▁corn	-11.9417
▁tanchi	-11.9423
▁wh	-11.9425
▁reigai	-11.9426
▁kagu	-11.9431
▁washing	-11.9433
suti	-11.9436
▁nigitte	-11.9437
▁Guren	-11.9439
▁shiremasenga	-11.9439
▁suimin	-11.9442
▁Imi	-11.9443
▁tra	-11.9449
▁seikika	-11.945
▁tsukame	-11.9451
▁Sal	-11.9452
raito	-11.9456
naidarou	-11.9462
▁accomplish	-11.9463
▁shinjita	-11.9467
iest	-11.9468
▁majutsu	-11.947
▁stamp	-11.9471
▁gentle	-11.9472
▁Rigsby	-11.9474
▁uragitta	-11.9474
▁kesseki	-11.9474
▁Sorezore	-11.9474
▁humble	-11.9474
▁puropati	-11.9474
▁assistance	-11.9474
▁barrier	-11.9474
▁nozoki	-11.9474
▁Settei	-11.9475
▁kyuushutsu	-11.9475
▁kabushiki	-11.9476
▁infected	-11.9476
▁hakkou	-11.9477
▁Mochi	-11.9477
▁omoidasenai	-11.9479
▁experienced	-11.9481
▁komento	-11.9481
▁mausu	-11.9482
▁juumin	-11.9482
▁sealed	-11.9483
▁keshiki	-11.9484
▁markets	-11.9484
▁Forgiving	-11.9485
▁Tonari	-11.9485
▁Fura	-11.9488
life	-11.9488
▁saigen	-11.9489
▁sutero	-11.9489
▁Sutibu	-11.9493
▁Sub	-11.9493
▁kuwa	-11.9494
▁kyoushitsu	-11.9496
▁Honor	-11.9496
▁Idou	-11.9497
▁hiroku	-11.9497
▁tomare	-11.9498
▁Hear	-11.9501
▁hitoshiku	-11.9502
▁Tooku	-11.9504
dama	-11.9505
▁continues	-11.9508
▁keika	-11.9509
▁Eve	-11.951
▁damaged	-11.9511
▁shusse	-11.9516
▁kakudo	-11.9518
25	-11.952
▁watari	-11.9522
ani	-11.9523
▁mitsu	-11.9523
sage	-11.9526
▁execute	-11.9527
nnen	-11.9528
▁Bishop	-11.9538
▁interests	-11.9538
▁scientific	-11.9539
▁Samaritan	-11.9539
▁competitive	-11.9539
▁disgrace	-11.9539
▁perspective	-11.9539
▁Tatakai	-11.9539
▁Kuukou	-11.9539
▁Iroiro	-11.954
kke	-11.954
▁kinben	-11.954
▁tsuiraku	-11.954
▁Casey	-11.954
▁tataki	-11.954
▁Senjitsu	-11.954
▁pointed	-11.9541
▁Gurimu	-11.9541
▁sappari	-11.9542
▁kakushiteru	-11.9543
▁Oba	-11.9543
▁possession	-11.9544
▁Hikari	-11.9544
▁sabu	-11.9547
▁Ema	-11.9549
▁boxes	-11.955
▁forbid	-11.9554
wasete	-11.9556
cla	-11.9558
lines	-11.9559
▁taerarenai	-11.956
▁hikuku	-11.9561
▁tsutomete	-11.9563
▁Em	-11.9563
▁narande	-11.9565
zing	-11.9567
▁shitagatta	-11.957
▁iidarou	-11.957
▁ebu	-11.9572
▁behold	-11.9575
ney	-11.9575
▁fitto	-11.9583
▁reporter	-11.9583
▁kowareta	-11.9584
▁Finchi	-11.9586
▁hazukashii	-11.9587
jibun	-11.9589
▁soku	-11.959
▁seal	-11.9594
suton	-11.9598
▁dekinaku	-11.96
▁absolute	-11.9601
▁immediate	-11.9601
▁konnichi	-11.9603
▁Caleb	-11.9604
▁Tuesday	-11.9604
▁fundamental	-11.9604
▁perimeter	-11.9604
▁interface	-11.9604
▁stink	-11.9604
▁bujoku	-11.9605
▁accustomed	-11.9605
▁electricity	-11.9605
▁exert	-11.9605
▁kemuri	-11.9605
▁Andrew	-11.9605
▁kotowatta	-11.9605
▁generations	-11.9607
▁shiguma	-11.9608
▁entori	-11.9608
▁tsukawashita	-11.9609
▁yatotta	-11.961
▁umarete	-11.9611
▁constantly	-11.9611
▁kokkyou	-11.9611
▁tsukaeba	-11.9612
▁koukyuu	-11.9612
▁Densha	-11.9613
▁taii	-11.9613
▁kimatte	-11.9613
▁ryoukin	-11.9613
mato	-11.9614
▁abura	-11.9614
▁sorts	-11.9617
▁zenkai	-11.9619
Co	-11.9621
▁Making	-11.9622
▁erabe	-11.9622
ssori	-11.9623
▁Lou	-11.9625
▁vow	-11.963
▁attaga	-11.9631
3.	-11.9632
▁suwaru	-11.9632
▁zan	-11.9634
▁Sea	-11.9634
▁states	-11.9634
▁dounyuu	-11.9634
▁lover	-11.9637
Don	-11.9641
▁Gei	-11.9646
▁fund	-11.9647
▁tashou	-11.9648
ctor	-11.9648
▁Kiiteru	-11.965
▁Shiba	-11.9651
▁ikana	-11.9655
ching	-11.9656
▁covering	-11.9657
▁vin	-11.9657
▁persuade	-11.9658
▁approve	-11.9658
▁junk	-11.966
▁ikenakatta	-11.9664
▁narabi	-11.9666
▁tomari	-11.9667
machi	-11.9668
▁teika	-11.9669
▁mortal	-11.9669
▁Tekisasu	-11.967
▁advertising	-11.967
▁investigating	-11.967
▁translation	-11.967
▁tasukaru	-11.967
▁Tomo	-11.9671
▁neratte	-11.9671
▁mie	-11.9671
▁shokugyou	-11.9671
▁Bible	-11.9672
▁arigatai	-11.9673
▁happou	-11.9673
▁tooru	-11.9673
gatta	-11.9673
▁Jisatsu	-11.9673
▁kowarete	-11.9675
▁temple	-11.9675
▁hagu	-11.9677
▁makasero	-11.9678
▁Sch	-11.9678
▁Gutai	-11.9678
▁raida	-11.968
▁somewhat	-11.9682
itsu	-11.9683
word	-11.9684
▁Dansei	-11.9685
▁ryoute	-11.9687
▁OF	-11.9688
▁Full	-11.9689
▁visitors	-11.969
bl	-11.9694
▁Deki	-11.9695
▁Dereku	-11.9697
▁tsukande	-11.9697
▁prisoners	-11.9699
▁nokotta	-11.97
▁matome	-11.97
▁losers	-11.97
▁sasetai	-11.9701
ear	-11.9704
▁suka	-11.9704
▁opera	-11.9707
▁searched	-11.971
15	-11.9711
▁whatsoever	-11.9712
▁Burando	-11.9716
▁rained	-11.9717
▁atsuku	-11.9717
ked	-11.9718
▁measures	-11.9721
▁doushi	-11.9722
▁possess	-11.9722
▁grows	-11.9723
mizu	-11.9723
ppen	-11.9724
▁kanashi	-11.9724
▁kangaeruto	-11.9725
▁nomanai	-11.9726
▁Ye	-11.9726
▁sukyan	-11.9727
▁Boss	-11.9729
▁Bara	-11.9729
▁chemical	-11.9736
▁ebusaito	-11.9736
▁heavily	-11.9736
▁kinodoku	-11.9736
▁nonsense	-11.9736
▁phase	-11.9736
▁subayaku	-11.9736
▁Debiddo	-11.9736
▁sauce	-11.9736
▁Ethan	-11.9736
▁component	-11.9736
▁Otokonoko	-11.9736
▁Click	-11.9737
▁dandan	-11.9738
▁yuude	-11.9738
▁Shio	-11.9739
▁Warren	-11.9739
▁honour	-11.9739
▁cookies	-11.9739
▁hatsuon	-11.974
▁recovery	-11.974
▁Kojinteki	-11.974
▁Beti	-11.9742
▁NA	-11.9742
▁kinmu	-11.9745
▁ichipon	-11.9746
▁saiyaku	-11.9746
▁Jean	-11.9747
▁dimension	-11.9747
▁ondo	-11.9747
▁production	-11.9748
▁taikai	-11.9749
suketa	-11.9749
▁drives	-11.975
▁yogen	-11.9752
▁saremasen	-11.9753
ford	-11.9753
▁heal	-11.9753
▁egaku	-11.9754
▁kissed	-11.9756
▁Age	-11.9758
▁funou	-11.9759
▁Kisu	-11.9759
▁roudou	-11.976
▁produced	-11.9761
▁kaese	-11.9762
pla	-11.9762
▁yatou	-11.9765
▁soshou	-11.9765
sp	-11.9767
arete	-11.9767
▁fai	-11.9768
▁deserves	-11.9772
pia	-11.9773
▁satte	-11.9773
▁kakumei	-11.9774
▁holidays	-11.9776
oma	-11.9779
▁communications	-11.978
▁tamae	-11.978
maranai	-11.9786
▁Kikoeta	-11.979
ese	-11.9798
▁kangaero	-11.9801
▁loyal	-11.9802
▁Chloe	-11.9803
▁Yuiitsu	-11.9803
▁sweep	-11.9803
▁utsukushisa	-11.9803
▁ojousan	-11.9803
▁doraiba	-11.9803
▁supermarket	-11.9803
▁confront	-11.9803
▁external	-11.9803
▁toreru	-11.9803
▁Liber	-11.9803
▁loyalty	-11.9803
▁mitsuketara	-11.9803
▁Tabemono	-11.9804
▁Zehi	-11.9804
▁Nazir	-11.9804
▁futago	-11.9804
▁detabesu	-11.9805
▁Futatsu	-11.9805
▁Tekisuto	-11.9805
▁Tsuujou	-11.9805
▁execution	-11.9806
▁hanketsu	-11.9806
▁Gura	-11.9806
▁retained	-11.9807
kesu	-11.9807
▁Midori	-11.9807
▁Alpha	-11.9807
▁uchigawa	-11.9809
▁senzai	-11.9811
▁Carlos	-11.9812
▁insisted	-11.9813
▁Hall	-11.9814
▁idle	-11.9815
▁commander	-11.9816
esuto	-11.9817
When	-11.982
▁fields	-11.9821
▁mesu	-11.9822
▁normally	-11.9823
▁shinaidarou	-11.9829
▁manga	-11.983
▁erabareta	-11.9831
▁tsuyo	-11.9831
Well	-11.9835
▁Anne	-11.9836
▁repent	-11.9838
▁aho	-11.9844
▁pile	-11.9848
▁shouhi	-11.985
▁Supai	-11.9852
▁3,	-11.9853
▁cr	-11.9855
▁calculate	-11.9858
▁Wakarimasen	-11.9858
▁Plan	-11.986
▁presented	-11.9865
▁Slow	-11.9868
▁kaiteki	-11.9868
▁Wh	-11.9869
▁kouho	-11.9869
▁Perfect	-11.987
▁candidate	-11.987
▁dokyumento	-11.987
▁pikunikku	-11.987
▁Warukatta	-11.987
▁vault	-11.987
▁drill	-11.987
▁tissue	-11.987
▁composition	-11.987
▁masaka	-11.987
▁kutsujoku	-11.987
▁Sagare	-11.987
▁binbou	-11.9871
▁snake	-11.9872
▁tsuyosa	-11.9873
▁difficulties	-11.9874
▁buildings	-11.9875
▁Kensaku	-11.9876
▁Parker	-11.9878
▁clothing	-11.9879
▁Teddo	-11.9879
▁kirikae	-11.9882
▁kappu	-11.9883
0,	-11.9883
▁sannin	-11.9888
▁cage	-11.9889
▁Odo	-11.989
▁ubai	-11.989
kaseta	-11.989
▁Tami	-11.9893
just	-11.9894
gei	-11.9896
coming	-11.9899
▁yuujou	-11.9899
▁higeki	-11.99
▁traveled	-11.9905
▁leverage	-11.9906
▁fuusa	-11.9906
VE	-11.9916
▁wakarudeshou	-11.9917
▁greatly	-11.992
▁dairi	-11.9923
▁pink	-11.9924
▁translate	-11.9925
ppara	-11.9925
rami	-11.9926
▁construct	-11.9929
▁deguchi	-11.9931
▁Kyo	-11.9932
zura	-11.9932
▁knee	-11.9932
bed	-11.9935
▁Cisco	-11.9937
▁Setsuzoku	-11.9937
▁Texas	-11.9937
▁storage	-11.9937
▁tragedy	-11.9937
▁Price	-11.9937
▁Bideo	-11.9937
▁indekkusu	-11.9938
▁kikanakatta	-11.9938
▁essential	-11.9938
▁Yoko	-11.9938
▁kasegu	-11.9938
▁Cool	-11.9938
▁tomerarenai	-11.9939
▁hakujin	-11.9939
▁Sweet	-11.9939
▁tested	-11.9939
▁itadakeru	-11.994
▁kaesareru	-11.9941
▁nobotte	-11.9941
▁Tsuzukete	-11.9942
▁kyuuyuu	-11.9942
▁omoimasuga	-11.9943
▁Ikiteru	-11.9945
▁amongst	-11.9945
▁arranged	-11.9946
▁okusama	-11.9947
▁kokunai	-11.9948
▁yarubeki	-11.9948
▁mixed	-11.9948
▁hid	-11.995
▁shelf	-11.995
▁kangaerareru	-11.9952
kaki	-11.9952
▁enable	-11.9954
▁furete	-11.9955
▁Kedo	-11.9955
▁testing	-11.9957
▁Sumimasenga	-11.9958
▁biggu	-11.996
Hi	-11.9961
▁enryo	-11.9963
▁yougi	-11.9967
▁Arayuru	-11.9977
▁purei	-11.9977
▁wounds	-11.9983
▁connections	-11.9984
▁kareshi	-11.9986
▁keri	-11.9989
▁shoujou	-11.9991
▁investigate	-11.9993
dono	-11.9993
zy	-11.9993
▁sonshou	-11.9997
▁shain	-12
▁Spring	-12.0005
▁komyuniti	-12.0005
▁otetsudai	-12.0005
▁replied	-12.0005
▁spider	-12.0005
▁steady	-12.0005
▁agency	-12.0005
▁Nathan	-12.0006
▁facing	-12.0006
▁tettei	-12.0006
▁okyakusama	-12.0006
▁Elias	-12.0006
▁ketsugou	-12.0007
▁Buraun	-12.0007
▁sokutei	-12.0007
▁pause	-12.0007
▁Keibi	-12.0007
▁shuui	-12.0007
▁purse	-12.0007
▁Tegami	-12.0008
▁awaseru	-12.0008
▁shuugeki	-12.0008
SS	-12.0009
▁shuugou	-12.0009
▁suwari	-12.001
jen	-12.0012
ets	-12.0013
▁Dick	-12.0013
▁Jitto	-12.0015
▁cloth	-12.0015
▁complaining	-12.0016
▁semai	-12.0016
▁hyoujou	-12.0017
▁iwazu	-12.0018
▁rec	-12.002
▁shushou	-12.002
▁yuushou	-12.0023
▁Daitai	-12.0023
▁Buri	-12.0023
▁Aniki	-12.0024
file	-12.0025
▁Akirame	-12.0029
ooku	-12.0029
nchou	-12.0031
▁Rin	-12.0032
▁tashikame	-12.0035
elect	-12.0035
▁Kyoku	-12.0035
▁tomu	-12.0035
una	-12.0035
▁megumi	-12.0037
▁businesses	-12.0039
▁Nomi	-12.0041
▁darouga	-12.0043
▁boot	-12.0043
▁okashi	-12.0045
▁youji	-12.0046
▁hatch	-12.0049
▁ryuushi	-12.0055
▁Tanoshi	-12.0055
▁mitsukerareru	-12.0056
rge	-12.0056
▁Heren	-12.0065
ung	-12.0065
▁credits	-12.0065
maker	-12.0067
base	-12.007
▁unexpected	-12.007
▁kikoe	-12.0072
▁Honestly	-12.0074
▁Private	-12.0074
▁daimoji	-12.0074
▁thumb	-12.0074
▁dentatsu	-12.0074
▁vertical	-12.0074
▁discount	-12.0074
▁impressive	-12.0074
▁akaunto	-12.0074
▁humor	-12.0074
▁digging	-12.0075
▁strings	-12.0075
▁dangan	-12.0075
▁isogashikatta	-12.0076
▁chase	-12.0078
▁opun	-12.0078
▁sesshu	-12.0078
▁drone	-12.0079
▁kotachi	-12.008
▁kakou	-12.008
▁citizen	-12.008
▁Juusho	-12.0081
▁mihatte	-12.0081
▁compromised	-12.0082
▁Shizen	-12.0083
▁Told	-12.0085
▁fox	-12.0085
code	-12.0086
▁ryu	-12.0089
▁deeper	-12.0091
▁taishoku	-12.0092
▁kiratte	-12.0095
▁jury	-12.0097
▁approaching	-12.0099
ino	-12.0099
▁Satoru	-12.01
▁Kakko	-12.01
500	-12.0101
▁chiten	-12.0103
▁nobori	-12.0103
▁shokei	-12.0105
▁Ryouri	-12.0106
▁oete	-12.0106
▁via	-12.0106
▁Tanoshinde	-12.0107
▁Moji	-12.0109
▁Rui	-12.0109
▁gut	-12.011
jime	-12.0112
▁Team	-12.0113
▁koukateki	-12.0113
▁Mairu	-12.0114
▁puragu	-12.0115
dina	-12.0115
▁Land	-12.0117
▁colleagues	-12.012
▁Masa	-12.012
▁daini	-12.0122
50,000	-12.0129
▁yatten	-12.0129
▁tomato	-12.0131
▁betray	-12.0135
▁alter	-12.0137
▁Ume	-12.0139
▁slight	-12.014
▁ittaro	-12.0141
▁Supreme	-12.0143
▁musurimu	-12.0143
▁omichibiki	-12.0143
▁Group	-12.0143
▁Lucas	-12.0143
▁cease	-12.0143
▁expertise	-12.0143
▁setsudan	-12.0144
▁Fusero	-12.0144
▁ryuugaku	-12.0144
▁conflict	-12.0144
ikibo	-12.0146
▁kokujin	-12.0146
▁inner	-12.0147
▁prick	-12.0148
▁attached	-12.0148
emashita	-12.0149
▁Joou	-12.015
▁mukai	-12.0152
▁ikikata	-12.0152
▁Bau	-12.0153
▁coordinates	-12.0155
▁sengen	-12.0155
▁nigero	-12.0155
▁Shimon	-12.0156
▁atsumatte	-12.0157
war	-12.0158
▁Zan	-12.0159
▁borrowed	-12.0159
▁Ushi	-12.016
▁Mc	-12.0162
▁shinjirare	-12.0167
▁worn	-12.0169
▁kyoukun	-12.0169
kakete	-12.0171
▁shoyuusha	-12.0171
▁Etto	-12.0172
▁corrected	-12.0173
zukuri	-12.0175
▁Douyou	-12.0175
▁begging	-12.0177
▁boom	-12.0182
▁sentences	-12.0185
▁sleepy	-12.0187
▁Nama	-12.0188
▁shimeru	-12.0189
▁taki	-12.0191
▁encourage	-12.02
▁Live	-12.0205
▁Whoo	-12.0211
▁couch	-12.0211
gue	-12.0212
▁Berlin	-12.0212
▁corporation	-12.0212
▁glance	-12.0212
▁harvest	-12.0212
▁sayonara	-12.0212
▁Yorokonde	-12.0213
▁pump	-12.0213
▁shuttle	-12.0214
▁sekushon	-12.0214
rah	-12.0215
▁coach	-12.0215
▁nanbyaku	-12.0216
▁urusai	-12.0218
saiensu	-12.0218
▁merely	-12.0218
make	-12.0218
▁haijo	-12.0219
▁gaibu	-12.0223
▁increases	-12.0223
isan	-12.0223
▁Shinki	-12.0224
▁koutei	-12.0225
▁downward	-12.0225
▁decent	-12.0227
▁guri	-12.0231
▁Code	-12.0233
▁skip	-12.0235
▁Kama	-12.0235
▁tsukamae	-12.0236
▁shichatta	-12.0239
▁Itami	-12.024
▁koroshitan	-12.024
rappu	-12.0244
totte	-12.0244
▁tsugeta	-12.0246
▁tomi	-12.0249
naoshi	-12.025
tagatte	-12.025
▁Purai	-12.0251
▁Reo	-12.0253
▁alley	-12.0257
▁fureta	-12.026
▁neteru	-12.0263
▁kekkan	-12.0264
yagatte	-12.0267
▁tricks	-12.0267
▁watatta	-12.0269
▁directions	-12.027
▁shoki	-12.0271
▁0,	-12.0272
▁crush	-12.0275
▁yarimasu	-12.0278
▁dekirudarou	-12.0279
▁Yuri	-12.0282
▁drama	-12.0282
▁Goshujin	-12.0282
▁division	-12.0282
▁mysterious	-12.0282
▁otomodachi	-12.0282
▁smiling	-12.0282
▁Zonbi	-12.0282
▁wazawaza	-12.0282
▁sounded	-12.0283
▁sakunen	-12.0283
▁hira	-12.0285
▁nobotta	-12.0285
▁Seihin	-12.0287
▁Shinrai	-12.0287
▁portion	-12.0288
▁janpu	-12.0289
▁Cle	-12.029
▁ryoukai	-12.0291
▁zokusei	-12.0294
▁hogosha	-12.0297
▁authorities	-12.0297
▁Seito	-12.0298
▁kashikoku	-12.0298
▁ST	-12.0298
▁kichigai	-12.0299
▁react	-12.0299
▁counts	-12.0299
▁Dokuta	-12.0299
boro	-12.03
▁gained	-12.03
▁goru	-12.0301
▁quietly	-12.0303
ochi	-12.0304
▁collecting	-12.0304
gar	-12.0305
▁worker	-12.0305
▁rear	-12.0306
▁sites	-12.0306
▁shoubu	-12.0307
▁dish	-12.0312
▁ninshou	-12.0313
▁Mal	-12.0313
hood	-12.0313
▁teiki	-12.0315
▁Shido	-12.0317
▁returning	-12.0317
▁eats	-12.0318
▁wazato	-12.0319
▁touchi	-12.032
▁blowing	-12.0321
▁Seru	-12.0323
▁rank	-12.0325
▁terrorists	-12.0326
▁focusing	-12.0328
▁dokuji	-12.033
▁kenkai	-12.033
giwa	-12.0331
▁Ein	-12.0331
▁guides	-12.0331
▁commanded	-12.0334
buro	-12.0335
ural	-12.0336
11	-12.0336
LY	-12.0338
▁tsukurimasu	-12.034
▁recruit	-12.0346
▁conceal	-12.0346
▁ME	-12.0347
▁wasureteta	-12.0349
▁Act	-12.0352
▁moteru	-12.0353
▁commercial	-12.0353
▁decrease	-12.0353
▁mathematics	-12.0353
▁mukankei	-12.0353
▁observation	-12.0353
▁Twenty	-12.0353
▁ayashii	-12.0353
▁Aman	-12.0353
▁barabara	-12.0353
▁therapy	-12.0353
▁koumyou	-12.0353
▁Operation	-12.0353
▁chord	-12.0353
▁starving	-12.0353
▁Berurin	-12.0354
▁missile	-12.0354
▁Patty	-12.0354
▁Miranda	-12.0354
▁egaite	-12.0354
▁Daiichi	-12.0355
▁Usotsuki	-12.0355
▁devoted	-12.0356
▁Yabai	-12.0356
▁iwasete	-12.0357
▁katamari	-12.0357
▁sutakku	-12.0358
▁List	-12.0358
▁shuzoku	-12.0358
▁tsumaranai	-12.0358
▁yuunou	-12.0358
▁monita	-12.036
▁gura	-12.036
▁toriage	-12.0361
▁rinjin	-12.0361
▁BE	-12.0363
▁serving	-12.0363
▁Mani	-12.0364
imu	-12.0366
▁Kuroe	-12.0367
▁sorrow	-12.0368
▁kaenai	-12.0368
▁Joku	-12.0369
▁corresponds	-12.037
tty	-12.037
▁Shane	-12.0372
▁freaking	-12.0372
▁shinsou	-12.0375
▁zutsuu	-12.0376
ache	-12.038
▁Grant	-12.038
▁sla	-12.0383
▁Haji	-12.0385
▁aimashita	-12.0385
▁biri	-12.0392
▁juri	-12.0393
▁exp	-12.0399
igen	-12.0402
ub	-12.0403
▁doukou	-12.0403
▁Dark	-12.0404
▁recording	-12.0407
▁walks	-12.0408
chimu	-12.0408
▁Guri	-12.0411
▁kenji	-12.0411
▁itten	-12.0412
▁delete	-12.0413
▁Douse	-12.0414
▁natteta	-12.0416
self	-12.0416
▁convert	-12.0417
wanakute	-12.0419
▁Kike	-12.042
▁instant	-12.042
▁Port	-12.0422
▁Correct	-12.0424
▁computing	-12.0424
▁guuzou	-12.0424
▁sacred	-12.0424
▁Bullshit	-12.0424
▁Dorobou	-12.0424
▁apology	-12.0424
▁wrist	-12.0424
▁Pardon	-12.0424
▁kyanseru	-12.0424
▁Delete	-12.0424
▁positioning	-12.0424
▁rekodo	-12.0425
▁Shougun	-12.0426
▁tantei	-12.0426
▁WE	-12.0426
▁nearby	-12.0426
▁Saitei	-12.0426
▁keizoku	-12.0427
▁overcome	-12.0427
▁drawer	-12.0427
▁shousoku	-12.0427
sign	-12.0428
▁okonawareta	-12.0429
▁Joshua	-12.0431
busu	-12.0432
▁Tessa	-12.0432
guramu	-12.0434
▁howaito	-12.0436
▁yokoku	-12.0437
▁katai	-12.0439
▁smarter	-12.0441
▁fueru	-12.0441
osa	-12.0444
▁forty	-12.0448
ntouteki	-12.0449
▁zaiko	-12.0453
▁Aunt	-12.0453
▁messed	-12.0453
▁akushon	-12.0453
▁kakareta	-12.0459
▁taoreta	-12.0461
▁hashira	-12.0463
▁tooth	-12.0466
cat	-12.0467
▁peni	-12.0467
nryoku	-12.047
▁bunshou	-12.0472
▁Thor	-12.0475
AD	-12.0481
▁HE	-12.0481
rikomu	-12.0483
▁Kira	-12.0484
▁Walk	-12.0484
terior	-12.0489
▁counsel	-12.0494
puru	-12.0494
▁hisshi	-12.0495
▁Mokuhyou	-12.0495
▁arrogant	-12.0495
▁prostrate	-12.0495
▁jakuten	-12.0495
▁suichoku	-12.0495
▁Cameron	-12.0495
▁Latin	-12.0496
▁thirsty	-12.0496
ET	-12.0499
▁haiyuu	-12.05
▁shiku	-12.05
▁inbou	-12.0502
▁aimai	-12.0504
▁Allow	-12.0504
▁futto	-12.0505
▁minasama	-12.0505
▁clip	-12.0506
▁hacked	-12.0506
odo	-12.0506
▁nerve	-12.0507
▁yuugen	-12.0509
▁Koukou	-12.0512
▁crashed	-12.0513
▁Mighty	-12.0515
▁rupu	-12.0516
▁Fish	-12.0516
▁yaruki	-12.0518
▁soukan	-12.0519
Me	-12.052
▁included	-12.0521
▁Dagu	-12.0523
gr	-12.0523
▁yaburu	-12.0523
▁sink	-12.0523
rozu	-12.0529
form	-12.0531
▁attacks	-12.0533
▁ataerarete	-12.0537
▁rocks	-12.0538
▁hifu	-12.0538
nkou	-12.0538
▁Bay	-12.0539
▁misero	-12.0539
▁Suugaku	-12.0539
dokoro	-12.0542
▁shigo	-12.0543
▁shitterun	-12.0544
▁Arisa	-12.0544
tasu	-12.0544
▁Kenka	-12.0546
▁needle	-12.0547
LL	-12.0549
▁Hunt	-12.0551
naosu	-12.0555
▁yuuyou	-12.0555
▁formed	-12.0555
▁utai	-12.0556
▁Umai	-12.0559
▁appeal	-12.056
raretara	-12.0561
▁Sign	-12.0563
▁branch	-12.0565
▁wing	-12.0566
▁matrices	-12.0567
▁principal	-12.0567
▁unhappy	-12.0567
▁john	-12.0567
▁statistical	-12.0567
▁yononaka	-12.0567
▁anomaly	-12.0567
▁urgent	-12.0567
▁System	-12.0567
▁Hanzawa	-12.0567
▁mawashite	-12.0567
▁Abby	-12.0567
▁chamber	-12.0567
▁chokuzen	-12.0567
▁bakageta	-12.0568
shoukai	-12.0568
▁towel	-12.0568
▁omoshirokatta	-12.0568
▁Kelly	-12.0568
▁Davis	-12.0569
▁tougou	-12.0569
▁nyuton	-12.057
SH	-12.057
▁chess	-12.057
▁disgusting	-12.0571
▁haisuru	-12.0571
▁fukak	-12.0572
▁nararenai	-12.0573
▁Women	-12.0574
▁aribai	-12.0575
▁golden	-12.0575
nna	-12.0575
▁scientists	-12.0576
▁Neru	-12.0578
▁dekizu	-12.0578
▁dimensional	-12.0581
▁buchou	-12.0582
fish	-12.0584
▁cursed	-12.0585
▁sama	-12.0585
▁isshun	-12.0585
▁Much	-12.0585
▁Okashi	-12.0588
▁Kuu	-12.0589
▁marked	-12.059
kaseru	-12.059
▁Tetsu	-12.059
▁Mayaku	-12.0593
wn	-12.0593
▁Zoi	-12.0594
▁shitatte	-12.0597
iba	-12.0601
▁tenkei	-12.0603
▁freeze	-12.0608
gumi	-12.0613
▁mawaru	-12.0616
▁combat	-12.0616
For	-12.0616
▁ansatsu	-12.0616
boy	-12.0618
▁Tenshi	-12.0618
hold	-12.0619
▁described	-12.0619
▁printer	-12.062
▁lit	-12.0623
▁soujuu	-12.0624
ini	-12.0626
▁notion	-12.0632
▁ronri	-12.0632
▁boots	-12.0635
▁isogashiku	-12.0635
▁hopes	-12.0636
▁tanoshi	-12.0638
new	-12.0639
▁escort	-12.0639
▁imagination	-12.0639
▁lieutenant	-12.0639
▁maximum	-12.0639
▁osutoraria	-12.0639
▁underneath	-12.0639
▁album	-12.0639
▁reizouko	-12.064
▁wreck	-12.064
▁kireru	-12.064
▁torikunde	-12.064
▁Bravo	-12.064
▁Sakuban	-12.064
▁desktop	-12.064
▁Flash	-12.064
▁Rekishi	-12.064
▁Jugyou	-12.064
▁Hannah	-12.064
▁fushinja	-12.064
▁melt	-12.0641
▁hirakimasu	-12.0642
▁unlikely	-12.0643
▁Kenkyuu	-12.0643
▁sakugen	-12.0643
▁panel	-12.0643
▁personality	-12.0643
▁hitsuji	-12.0644
▁baishuu	-12.0645
▁pulse	-12.0646
▁Goutou	-12.0646
▁Deibu	-12.0647
▁totan	-12.0649
▁irainin	-12.065
▁kenkyuusho	-12.065
sses	-12.065
▁charming	-12.0651
▁Lot	-12.0651
dis	-12.0651
▁kengo	-12.0652
▁juyou	-12.0652
▁cigarette	-12.0653
▁IS	-12.0653
▁Yotte	-12.0653
▁kurutteru	-12.0654
▁Kimu	-12.0658
▁yuku	-12.0658
▁sureddo	-12.0658
aging	-12.0661
▁sareteta	-12.0664
Did	-12.0665
▁Hira	-12.0668
suma	-12.067
▁shinjimasu	-12.0671
▁upward	-12.0671
▁shea	-12.0671
▁ikenain	-12.0673
▁Gardens	-12.0674
▁Ransu	-12.0678
shimoto	-12.0678
▁Kenshi	-12.0681
▁Akai	-12.0681
▁Nagaku	-12.0683
ering	-12.0688
▁kills	-12.0688
▁heir	-12.0691
supa	-12.0692
▁genjuu	-12.0694
obi	-12.0695
bagu	-12.0698
▁merge	-12.0699
▁Fai	-12.0701
▁buchi	-12.0706
▁kugi	-12.0706
▁chigaun	-12.071
▁tahe	-12.071
chimatta	-12.071
paku	-12.0711
kishi	-12.0712
▁calendar	-12.0712
▁destiny	-12.0712
▁odoroite	-12.0712
▁relief	-12.0712
▁twelve	-12.0712
▁mamotta	-12.0712
▁kidnapped	-12.0713
▁gyokuza	-12.0713
▁timing	-12.0713
▁carpet	-12.0713
▁suitcase	-12.0713
▁specifically	-12.0713
▁ryuukou	-12.0714
▁zairyou	-12.0715
▁Miller	-12.0718
▁ikoru	-12.0718
[...]
